{
  "version": "1.0",
  "truncation": {
    "direction": "Right",
    "max_length": 256,
    "strategy": "LongestFirst",
    "stride": 0
  },
  "padding": {
    "strategy": {
      "Fixed": 256
    },
    "direction": "Right",
    "pad_to_multiple_of": 64,
    "pad_id": 0,
    "pad_type_id": 0,
    "pad_token": "[PAD]"
  },
  "added_tokens": [
    {
      "id": 0,
      "content": "[PAD]",
      "single_word": false,
      "lstrip": false,
      "rstrip": false,
      "normalized": false,
      "special": true
    },
    {
      "id": 1,
      "content": "[UNK]",
      "single_word": false,
      "lstrip": false,
      "rstrip": false,
      "normalized": false,
      "special": true
    },
    {
      "id": 2,
      "content": "[CLS]",
      "single_word": false,
      "lstrip": false,
      "rstrip": false,
      "normalized": false,
      "special": true
    },
    {
      "id": 3,
      "content": "[SEP]",
      "single_word": false,
      "lstrip": false,
      "rstrip": false,
      "normalized": false,
      "special": true
    },
    {
      "id": 4,
      "content": "[MASK]",
      "single_word": false,
      "lstrip": false,
      "rstrip": false,
      "normalized": false,
      "special": true
    }
  ],
  "normalizer": {
    "type": "Sequence",
    "normalizers": [
      {
        "type": "NFD"
      },
      {
        "type": "StripAccents"
      },
      {
        "type": "Lowercase"
      }
    ]
  },
  "pre_tokenizer": {
    "type": "Sequence",
    "pretokenizers": [
      {
        "type": "WhitespaceSplit"
      },
      {
        "type": "Punctuation",
        "behavior": "Isolated"
      }
    ]
  },
  "post_processor": {
    "type": "TemplateProcessing",
    "single": [
      {
        "SpecialToken": {
          "id": "[CLS]",
          "type_id": 0
        }
      },
      {
        "Sequence": {
          "id": "A",
          "type_id": 0
        }
      },
      {
        "SpecialToken": {
          "id": "[SEP]",
          "type_id": 0
        }
      }
    ],
    "pair": [
      {
        "Sequence": {
          "id": "A",
          "type_id": 0
        }
      },
      {
        "Sequence": {
          "id": "B",
          "type_id": 1
        }
      }
    ],
    "special_tokens": {
      "[CLS]": {
        "id": "[CLS]",
        "ids": [
          2
        ],
        "tokens": [
          "[CLS]"
        ]
      },
      "[SEP]": {
        "id": "[SEP]",
        "ids": [
          3
        ],
        "tokens": [
          "[SEP]"
        ]
      }
    }
  },
  "decoder": {
    "type": "ByteLevel",
    "add_prefix_space": true,
    "trim_offsets": true,
    "use_regex": true
  },
  "model": {
    "type": "BPE",
    "dropout": null,
    "unk_token": "[UNK]",
    "continuing_subword_prefix": null,
    "end_of_word_suffix": null,
    "fuse_unk": false,
    "byte_fallback": false,
    "ignore_merges": false,
    "vocab": {
      "[PAD]": 0,
      "[UNK]": 1,
      "[CLS]": 2,
      "[SEP]": 3,
      "[MASK]": 4,
      "-": 5,
      ".": 6,
      "0": 7,
      "1": 8,
      "2": 9,
      "3": 10,
      "4": 11,
      "5": 12,
      "6": 13,
      "7": 14,
      "8": 15,
      "9": 16,
      "_": 17,
      "a": 18,
      "b": 19,
      "c": 20,
      "d": 21,
      "e": 22,
      "f": 23,
      "g": 24,
      "h": 25,
      "i": 26,
      "j": 27,
      "k": 28,
      "l": 29,
      "m": 30,
      "n": 31,
      "o": 32,
      "p": 33,
      "q": 34,
      "r": 35,
      "s": 36,
      "t": 37,
      "u": 38,
      "v": 39,
      "w": 40,
      "x": 41,
      "y": 42,
      "z": 43,
      "me": 44,
      "ra": 45,
      "ef": 46,
      "sa": 47,
      "bl": 48,
      "fef": 49,
      "rame": 50,
      "safef": 51,
      "safeframe": 52,
      "20": 53,
      "10": 54,
      "en": 55,
      "er": 56,
      "19": 57,
      "16": 58,
      "co": 59,
      "17": 60,
      "re": 61,
      "14": 62,
      "24": 63,
      "st": 64,
      "18": 65,
      "13": 66,
      "15": 67,
      "in": 68,
      "ns": 69,
      "23": 70,
      "ro": 71,
      "zen": 72,
      "ic": 73,
      "25": 74,
      "ed": 75,
      "ac": 76,
      "ad": 77,
      "12": 78,
      "ma": 79,
      "com": 80,
      "40": 81,
      "85": 82,
      "il": 83,
      "ec": 84,
      "22": 85,
      "ba": 86,
      "6e": 87,
      "ti": 88,
      "54": 89,
      "ea": 90,
      "or": 91,
      "cd": 92,
      "77": 93,
      "93": 94,
      "on": 95,
      "pro": 96,
      "ca": 97,
      "it": 98,
      "sbl": 99,
      "00": 100,
      "64": 101,
      "da": 102,
      "as": 103,
      "bb": 104,
      "tr": 105,
      "1f": 106,
      "69": 107,
      "28": 108,
      "67": 109,
      "33": 110,
      "45": 111,
      "65": 112,
      "de": 113,
      "27": 114,
      "bf": 115,
      "li": 116,
      "ce": 117,
      "na": 118,
      "68": 119,
      "98": 120,
      "c4": 121,
      "63": 122,
      "ff": 123,
      "60": 124,
      "dns": 125,
      "47": 126,
      "ul": 127,
      "90": 128,
      "95": 129,
      "35": 130,
      "et": 131,
      "209": 132,
      "ser": 133,
      "wc": 134,
      "mail": 135,
      "fa": 136,
      "be": 137,
      "lo": 138,
      "11": 139,
      "94": 140,
      "80": 141,
      "37": 142,
      "b5": 143,
      "bd": 144,
      "97": 145,
      "6d": 146,
      "87": 147,
      "b7": 148,
      "us": 149,
      "cf": 150,
      "c5": 151,
      "sn": 152,
      "do": 153,
      "ver": 154,
      "92": 155,
      "44": 156,
      "b0": 157,
      "b3": 158,
      "6a": 159,
      "c7": 160,
      "c3": 161,
      "6f": 162,
      "at": 163,
      "fp": 164,
      "1d": 165,
      "e7": 166,
      "ap": 167,
      "b4": 168,
      "1a": 169,
      "c0": 170,
      "88": 171,
      "di": 172,
      "2f": 173,
      "2d": 174,
      "xp": 175,
      "si": 176,
      "2a": 177,
      "9d": 178,
      "op": 179,
      "30": 180,
      "prod": 181,
      "9a": 182,
      "server": 183,
      "ee": 184,
      "sp": 185,
      "ure": 186,
      "50": 187,
      "v4": 188,
      "34": 189,
      "an": 190,
      "dnsbl": 191,
      "9f": 192,
      "84": 193,
      "ut": 194,
      "el": 195,
      "66": 196,
      "es": 197,
      "57": 198,
      "p4": 199,
      "e4": 200,
      "83": 201,
      "e0": 202,
      "am": 203,
      "91": 204,
      "so": 205,
      "eu": 206,
      "cbl": 207,
      "ex": 208,
      "107": 209,
      "rs": 210,
      "cc": 211,
      "meas": 212,
      "measure": 213,
      "mul": 214,
      "aa": 215,
      "8d": 216,
      "multi": 217,
      "53": 218,
      "62": 219,
      "8f": 220,
      "eb": 221,
      "tric": 222,
      "metric": 223,
      "ws": 224,
      "e3": 225,
      "55": 226,
      "8a": 227,
      "pu": 228,
      "df": 229,
      "xp3": 230,
      "v6e": 231,
      "v6exp3": 232,
      "bc": 233,
      "99": 234,
      "43": 235,
      "al": 236,
      "un": 237,
      "vi": 238,
      "dbl": 239,
      "e5": 240,
      "ar": 241,
      "ch": 242,
      "4f": 243,
      "82": 244,
      "ort": 245,
      "52": 246,
      "dd": 247,
      "a7": 248,
      "wl": 249,
      "ent": 250,
      "af": 251,
      "32": 252,
      "list": 253,
      "i2": 254,
      "89": 255,
      "ds": 256,
      "bo": 257,
      "sco": 258,
      "74": 259,
      "240": 260,
      "ter": 261,
      "75": 262,
      "6c": 263,
      "70": 264,
      "b2": 265,
      "inf": 266,
      "42": 267,
      "73": 268,
      "sh": 269,
      "d3": 270,
      "a5": 271,
      "ri": 272,
      "d0": 273,
      "198": 274,
      "ge": 275,
      "nal": 276,
      "c2": 277,
      "a0": 278,
      "ust": 279,
      "ms": 280,
      "medi": 281,
      "ww": 282,
      "up": 283,
      "bi": 284,
      "port": 285,
      "net": 286,
      "nt": 287,
      "dob": 288,
      "ho": 289,
      "3f": 290,
      "cb": 291,
      "6b": 292,
      "48": 293,
      "sibl": 294,
      "mp": 295,
      "d7": 296,
      "5b": 297,
      "red": 298,
      "acc": 299,
      "publ": 300,
      "147": 301,
      "go": 302,
      "id": 303,
      "a3": 304,
      "46": 305,
      "4d": 306,
      "1c": 307,
      "e2": 308,
      "mt": 309,
      "72": 310,
      "96": 311,
      "public": 312,
      "cdn": 313,
      "ternal": 314,
      "185": 315,
      "e8": 316,
      "ip": 317,
      "49": 318,
      "adb": 319,
      "we": 320,
      "if": 321,
      "psbl": 322,
      "external": 323,
      "5f": 324,
      "redit": 325,
      "mo": 326,
      "infra": 327,
      "b8": 328,
      "trust": 329,
      "174": 330,
      "tion": 331,
      "accredit": 332,
      "4a": 333,
      "trusted": 334,
      "media": 335,
      "report": 336,
      "205": 337,
      "192": 338,
      "score": 339,
      "162": 340,
      "la": 341,
      "f0": 342,
      "iadb": 343,
      "ly": 344,
      "rh": 345,
      "bg": 346,
      "e6": 347,
      "1b": 348,
      "108": 349,
      "d2": 350,
      "le": 351,
      "po": 352,
      "58": 353,
      "38": 354,
      "26": 355,
      "ub": 356,
      "to": 357,
      "21": 358,
      "bar": 359,
      "51": 360,
      "3d": 361,
      "th": 362,
      "c8": 363,
      "clo": 364,
      "uk": 365,
      "ud": 366,
      "no": 367,
      "7f": 368,
      "sc": 369,
      "59": 370,
      "init": 371,
      "1e": 372,
      "ag": 373,
      "86": 374,
      "nu": 375,
      "ing": 376,
      "104": 377,
      "29": 378,
      "b9": 379,
      "fd": 380,
      "tec": 381,
      "mx": 382,
      "ss": 383,
      "ve": 384,
      "org": 385,
      "yg": 386,
      "ur": 387,
      "78": 388,
      "fe": 389,
      "cl": 390,
      "spam": 391,
      "ybar": 392,
      "ab": 393,
      "opm": 394,
      "7d": 395,
      "56": 396,
      "ps": 397,
      "e9": 398,
      "f3": 399,
      "a4": 400,
      "mi": 401,
      "b6": 402,
      "f4": 403,
      "31": 404,
      "rc": 405,
      "fc": 406,
      "ta": 407,
      "251": 408,
      "ok": 409,
      "36": 410,
      "216": 411,
      "fil": 412,
      "76": 413,
      "dc": 414,
      "d4": 415,
      "va": 416,
      "193": 417,
      "pp": 418,
      "200": 419,
      "my": 420,
      "167": 421,
      "rt": 422,
      "ko": 423,
      "79": 424,
      "81": 425,
      "173": 426,
      "191": 427,
      "mf": 428,
      "atl": 429,
      "39": 430,
      "mg": 431,
      "ug": 432,
      "api": 433,
      "c9": 434,
      "41": 435,
      "208": 436,
      "protec": 437,
      "172": 438,
      "d5": 439,
      "245": 440,
      "protection": 441,
      "west": 442,
      "br": 443,
      "195": 444,
      "vo": 445,
      "f7": 446,
      "05": 447,
      "114": 448,
      "sk": 449,
      "117": 450,
      "f5": 451,
      "ne": 452,
      "db": 453,
      "03": 454,
      "te": 455,
      "217": 456,
      "ph": 457,
      "212": 458,
      "61": 459,
      "ls": 460,
      "148": 461,
      "ft": 462,
      "dy": 463,
      "02": 464,
      "103": 465,
      "uc": 466,
      "out": 467,
      "9e": 468,
      "xx": 469,
      "04": 470,
      "222": 471,
      "237": 472,
      "pl": 473,
      "160": 474,
      "xy": 475,
      "ig": 476,
      "a2": 477,
      "sos": 478,
      "atlas": 479,
      "elb": 480,
      "ol": 481,
      "mc4": 482,
      "og": 483,
      "6e1f": 484,
      "is": 485,
      "ef20": 486,
      "c6": 487,
      "194": 488,
      "166": 489,
      "105": 490,
      "u28": 491,
      "cs": 492,
      "5bef20": 493,
      "mc46e1f": 494,
      "mc46e1f5bef20": 495,
      "199": 496,
      "8e": 497,
      "1624": 498,
      "01": 499,
      "ae": 500,
      "rhsbl": 501,
      "kn": 502,
      "um": 503,
      "fb": 504,
      "wq": 505,
      "wj": 506,
      "71": 507,
      "155": 508,
      "ix": 509,
      "c1": 510,
      "em": 511,
      "ck": 512,
      "07": 513,
      "128": 514,
      "pr": 515,
      "hr": 516,
      "sto": 517,
      "a8": 518,
      "2c": 519,
      "ga": 520,
      "2b": 521,
      "164": 522,
      "jo": 523,
      "210": 524,
      "vic": 525,
      "pe": 526,
      "vie": 527,
      "9b": 528,
      "178": 529,
      "201": 530,
      "wn": 531,
      "ik": 532,
      "100": 533,
      "vg": 534,
      "ll": 535,
      "180": 536,
      "130": 537,
      "ij": 538,
      "d8": 539,
      "5a": 540,
      "124": 541,
      "ir": 542,
      "hp": 543,
      "zz": 544,
      "134": 545,
      "7c": 546,
      "220": 547,
      "9c": 548,
      "ak": 549,
      "f8": 550,
      "ht": 551,
      "vk": 552,
      "stat": 553,
      "4c": 554,
      "5d": 555,
      "east": 556,
      "qu": 557,
      "rol": 558,
      "nl": 559,
      "fk": 560,
      "zo": 561,
      "150": 562,
      "ry": 563,
      "io": 564,
      "3c": 565,
      "wm": 566,
      "se": 567,
      "123": 568,
      "r3": 569,
      "wa": 570,
      "ram": 571,
      "bn": 572,
      "rk": 573,
      "i1": 574,
      "7a": 575,
      "pre": 576,
      "0f": 577,
      "qq": 578,
      "163": 579,
      "08": 580,
      "hn": 581,
      "xbl": 582,
      "ts": 583,
      "fna": 584,
      "mic": 585,
      "hy": 586,
      "2e": 587,
      "cm": 588,
      "113": 589,
      "3a": 590,
      "145": 591,
      "nuid": 592,
      "vp": 593,
      "129": 594,
      "247": 595,
      "g5": 596,
      "ux": 597,
      "fo": 598,
      "189": 599,
      "142": 600,
      "gn": 601,
      "qk": 602,
      "183": 603,
      "4e": 604,
      "109": 605,
      "213": 606,
      "web": 607,
      "vs": 608,
      "im": 609,
      "187": 610,
      "ha": 611,
      "ia": 612,
      "4b": 613,
      "cli": 614,
      "143": 615,
      "r2": 616,
      "uy": 617,
      "vy": 618,
      "cn": 619,
      "zn": 620,
      "204": 621,
      "223": 622,
      "wp": 623,
      "qx": 624,
      "bs": 625,
      "r4": 626,
      "gy": 627,
      "only": 628,
      "uj": 629,
      "146": 630,
      "rn": 631,
      "cp": 632,
      "ty": 633,
      "vn": 634,
      "111": 635,
      "254": 636,
      "5e": 637,
      "d1": 638,
      "f2": 639,
      "8c": 640,
      "140": 641,
      "vx": 642,
      "3e": 643,
      "221": 644,
      "dm": 645,
      "iz": 646,
      "b1": 647,
      "144": 648,
      "by": 649,
      "ot": 650,
      "hx": 651,
      "ct": 652,
      "smt": 653,
      "177": 654,
      "r5": 655,
      "jy": 656,
      "a6": 657,
      "client": 658,
      "d6": 659,
      "120": 660,
      "jp": 661,
      "qy": 662,
      "wf": 663,
      "243": 664,
      "253": 665,
      "az": 666,
      "218": 667,
      "250": 668,
      "dk": 669,
      "wx": 670,
      "137": 671,
      "wy": 672,
      "gr": 673,
      "hk": 674,
      "149": 675,
      "154": 676,
      "139": 677,
      "rbl": 678,
      "vq": 679,
      "wo": 680,
      "ml": 681,
      "e1": 682,
      "mn": 683,
      "uz": 684,
      "rcub": 685,
      "gs": 686,
      "188": 687,
      "fs": 688,
      "wr": 689,
      "a9": 690,
      "214": 691,
      "171": 692,
      "mk": 693,
      "106": 694,
      "157": 695,
      "app": 696,
      "wz": 697,
      "wk": 698,
      "gl": 699,
      "aws": 700,
      "197": 701,
      "ius": 702,
      "jq": 703,
      "static": 704,
      "135": 705,
      "cx": 706,
      "con": 707,
      "176": 708,
      "dl": 709,
      "vt": 710,
      "bz": 711,
      "bk": 712,
      "www": 713,
      "158": 714,
      "133": 715,
      "dn": 716,
      "06": 717,
      "116": 718,
      "138": 719,
      "141": 720,
      "122": 721,
      "smtp": 722,
      "f6": 723,
      "uq": 724,
      "jl": 725,
      "119": 726,
      "vz": 727,
      "anti": 728,
      "wh": 729,
      "7e": 730,
      "8b": 731,
      "vh": 732,
      "mr": 733,
      "pa": 734,
      "170": 735,
      "ci": 736,
      "uf": 737,
      "jx": 738,
      "gt": 739,
      "gi": 740,
      "175": 741,
      "127": 742,
      "190": 743,
      "bio": 744,
      "202": 745,
      "203": 746,
      "249": 747,
      "a1": 748,
      "d9": 749,
      "206": 750,
      "tra": 751,
      "sy": 752,
      "boun": 753,
      "169": 754,
      "ey": 755,
      "jz": 756,
      "161": 757,
      "233": 758,
      "232": 759,
      "spamrbl": 760,
      "s3": 761,
      "nk": 762,
      "qt": 763,
      "ral": 764,
      "ine": 765,
      "gz": 766,
      "vl": 767,
      "inst": 768,
      "cy": 769,
      "qo": 770,
      "jk": 771,
      "09": 772,
      "gk": 773,
      "hl": 774,
      "qs": 775,
      "jt": 776,
      "196": 777,
      "136": 778,
      "110": 779,
      "euro": 780,
      "host": 781,
      "184": 782,
      "ql": 783,
      "156": 784,
      "207": 785,
      "uo": 786,
      "153": 787,
      "182": 788,
      "159": 789,
      "ntent": 790,
      "gx": 791,
      "7b": 792,
      "219": 793,
      "s1": 794,
      "5c": 795,
      "file": 796,
      "bx": 797,
      "244": 798,
      "0a": 799,
      "qz": 800,
      "servic": 801,
      "pt": 802,
      "168": 803,
      "fi": 804,
      "ru": 805,
      "wt": 806,
      "181": 807,
      "179": 808,
      "101": 809,
      "read": 810,
      "0d": 811,
      "qn": 812,
      "clou": 813,
      "ja": 814,
      "bt": 815,
      "mz": 816,
      "242": 817,
      "112": 818,
      "rp": 819,
      "jh": 820,
      "bp": 821,
      "gp": 822,
      "jn": 823,
      "fl": 824,
      "125": 825,
      "int": 826,
      "0c": 827,
      "uh": 828,
      "iy": 829,
      "fy": 830,
      "r1": 831,
      "f9": 832,
      "dt": 833,
      "rv": 834,
      "236": 835,
      "115": 836,
      "235": 837,
      "ns1": 838,
      "wg": 839,
      "3b": 840,
      "vm": 841,
      "dapp": 842,
      "sl": 843,
      "230": 844,
      "215": 845,
      "zy": 846,
      "profile": 847,
      "bound": 848,
      "131": 849,
      "gu": 850,
      "iusb": 851,
      "readonly": 852,
      "rd": 853,
      "102": 854,
      "bin": 855,
      "165": 856,
      "wi": 857,
      "118": 858,
      "255": 859,
      "rl": 860,
      "sm": 861,
      "zk": 862,
      "outbound": 863,
      "ep": 864,
      "su": 865,
      "hi": 866,
      "entral": 867,
      "cloudapp": 868,
      "qp": 869,
      "ek": 870,
      "234": 871,
      "cloud": 872,
      "look": 873,
      "132": 874,
      "qh": 875,
      "186": 876,
      "ny": 877,
      "ka": 878,
      "bm": 879,
      "zx": 880,
      "gh": 881,
      "fx": 882,
      "v2": 883,
      "previe": 884,
      "ns2": 885,
      "238": 886,
      "w2": 887,
      "jj": 888,
      "bh": 889,
      "shop": 890,
      "rx": 891,
      "dx": 892,
      "152": 893,
      "awsdns": 894,
      "imp": 895,
      "ky": 896,
      "previews": 897,
      "dms": 898,
      "n4": 899,
      "7l": 900,
      "ks": 901,
      "rm": 902,
      "zt": 903,
      "zp": 904,
      "for": 905,
      "248": 906,
      "r6": 907,
      "228": 908,
      "4g5": 909,
      "ih": 910,
      "nsv4": 911,
      "v6": 912,
      "bal": 913,
      "0b": 914,
      "clientnsv4": 915,
      "uth": 916,
      "combin": 917,
      "vj": 918,
      "combined": 919,
      "224": 920,
      "zl": 921,
      "agram": 922,
      "227": 923,
      "instagram": 924,
      "dp": 925,
      "231": 926,
      "gq": 927,
      "man": 928,
      "229": 929,
      "os": 930,
      "151": 931,
      "ec2": 932,
      "w3": 933,
      "store": 934,
      "225": 935,
      "239": 936,
      "dyna": 937,
      "ack": 938,
      "etf": 939,
      "dh": 940,
      "f1": 941,
      "v7": 942,
      "nq": 943,
      "js": 944,
      "w5": 945,
      "nx": 946,
      "246": 947,
      "ua": 948,
      "nc": 949,
      "doc": 950,
      "226": 951,
      "mh": 952,
      "ev": 953,
      "tt": 954,
      "lb": 955,
      "ob": 956,
      "py": 957,
      "ues": 958,
      "per": 959,
      "ero": 960,
      "cz": 961,
      "edu": 962,
      "comp": 963,
      "v3": 964,
      "w7": 965,
      "mm": 966,
      "252": 967,
      "vf": 968,
      "scontent": 969,
      "kk": 970,
      "fail": 971,
      "121": 972,
      "eo": 973,
      "w4": 974,
      "hh": 975,
      "bq": 976,
      "pi": 977,
      "w6": 978,
      "gg": 979,
      "xt": 980,
      "za": 981,
      "ima": 982,
      "ipv4": 983,
      "0e": 984,
      "bj": 985,
      "tel": 986,
      "vr": 987,
      "lookup": 988,
      "7y": 989,
      "du": 990,
      "fon": 991,
      "s4": 992,
      "dj": 993,
      "mu": 994,
      "126": 995,
      "ute": 996,
      "edge": 997,
      "wor": 998,
      "goog": 999,
      "cg": 1000,
      "n3": 1001,
      "dynamic": 1002,
      "211": 1003,
      "mj": 1004,
      "vu": 1005,
      "dz": 1006,
      "dg": 1007,
      "cq": 1008,
      "ni": 1009,
      "fr": 1010,
      "v5": 1011,
      "dq": 1012,
      "yy": 1013,
      "kl": 1014,
      "glo": 1015,
      "xl": 1016,
      "mq": 1017,
      "ki": 1018,
      "apps": 1019,
      "241": 1020,
      "bu": 1021,
      "wer": 1022,
      "tl": 1023,
      "6y": 1024,
      "xn": 1025,
      "son": 1026,
      "fre": 1027,
      "dul": 1028,
      "wu": 1029,
      "data": 1030,
      "h5": 1031,
      "rg": 1032,
      "he": 1033,
      "je": 1034,
      "7k": 1035,
      "som": 1036,
      "xo": 1037,
      "hu": 1038,
      "hq": 1039,
      "tp": 1040,
      "sg": 1041,
      "rq": 1042,
      "bot": 1043,
      "jg": 1044,
      "7z": 1045,
      "nz": 1046,
      "rage": 1047,
      "ax": 1048,
      "j3": 1049,
      "info": 1050,
      "hs": 1051,
      "xk": 1052,
      "vc": 1053,
      "storage": 1054,
      "16244": 1055,
      "om": 1056,
      "central": 1057,
      "7s": 1058,
      "brero": 1059,
      "sombrero": 1060,
      "rz": 1061,
      "fz": 1062,
      "res": 1063,
      "soft": 1064,
      "fm": 1065,
      "ji": 1066,
      "ui": 1067,
      "vax": 1068,
      "europe": 1069,
      "yt": 1070,
      "n5": 1071,
      "q5": 1072,
      "ue": 1073,
      "rj": 1074,
      "pk": 1075,
      "micro": 1076,
      "l4": 1077,
      "ity": 1078,
      "hz": 1079,
      "bil": 1080,
      "lay": 1081,
      "vv": 1082,
      "u3": 1083,
      "line": 1084,
      "yo": 1085,
      "qg": 1086,
      "ica": 1087,
      "px": 1088,
      "pc": 1089,
      "tk": 1090,
      "user": 1091,
      "google": 1092,
      "ces": 1093,
      "dr": 1094,
      "fn": 1095,
      "ect": 1096,
      "global": 1097,
      "fg": 1098,
      "a33": 1099,
      "s2": 1100,
      "core": 1101,
      "u4": 1102,
      "q7": 1103,
      "q4": 1104,
      "med": 1105,
      "kz": 1106,
      "6l": 1107,
      "ya": 1108,
      "yp": 1109,
      "ull": 1110,
      "bfbot": 1111,
      "q3": 1112,
      "compute": 1113,
      "wd": 1114,
      "m3": 1115,
      "yl": 1116,
      "ssl": 1117,
      "fv": 1118,
      "ie": 1119,
      "qj": 1120,
      "name": 1121,
      "p5": 1122,
      "ear": 1123,
      "m4": 1124,
      "g3": 1125,
      "lan": 1126,
      "6k": 1127,
      "ster": 1128,
      "ons": 1129,
      "6t": 1130,
      "6n": 1131,
      "xz": 1132,
      "proxy": 1133,
      "fh": 1134,
      "oo": 1135,
      "vide": 1136,
      "nort": 1137,
      "ys": 1138,
      "m5": 1139,
      "2k": 1140,
      "gra": 1141,
      "fj": 1142,
      "wdf": 1143,
      "4g5ed": 1144,
      "xh": 1145,
      "service": 1146,
      "apple": 1147,
      "6o": 1148,
      "min": 1149,
      "tj": 1150,
      "ng": 1151,
      "iv": 1152,
      "rb": 1153,
      "ec0": 1154,
      "log": 1155,
      "gov": 1156,
      "north": 1157,
      "dsn": 1158,
      "i5": 1159,
      "h3": 1160,
      "sec": 1161,
      "cal": 1162,
      "tf": 1163,
      "gw": 1164,
      "vd": 1165,
      "cj": 1166,
      "pg": 1167,
      "ment": 1168,
      "cu": 1169,
      "m2": 1170,
      "w1": 1171,
      "microsoft": 1172,
      "der": 1173,
      "p2": 1174,
      "7o": 1175,
      "lu": 1176,
      "j4": 1177,
      "j2": 1178,
      "g2": 1179,
      "qv": 1180,
      "mobil": 1181,
      "nd": 1182,
      "qa": 1183,
      "sen": 1184,
      "services": 1185,
      "live": 1186,
      "qr": 1187,
      "ju": 1188,
      "yk": 1189,
      "spo": 1190,
      "h4": 1191,
      "j5": 1192,
      "wv": 1193,
      "6x": 1194,
      "video": 1195,
      "tmf": 1196,
      "wdfwm": 1197,
      "tv": 1198,
      "cr": 1199,
      "ox": 1200,
      "pz": 1201,
      "h2": 1202,
      "ate": 1203,
      "i4": 1204,
      "7x": 1205,
      "bra": 1206,
      "u5": 1207,
      "hg": 1208,
      "wam": 1209,
      "ln": 1210,
      "ush": 1211,
      "geo": 1212,
      "yx": 1213,
      "ez": 1214,
      "av": 1215,
      "rive": 1216,
      "cname": 1217,
      "ama": 1218,
      "fkm": 1219,
      "conf": 1220,
      "n2": 1221,
      "ao": 1222,
      "biz": 1223,
      "6z": 1224,
      "lin": 1225,
      "hrm": 1226,
      "935": 1227,
      "online": 1228,
      "hpa7": 1229,
      "img": 1230,
      "wjfkm": 1231,
      "yn": 1232,
      "viewer": 1233,
      "sit": 1234,
      "dar": 1235,
      "q2": 1236,
      "hj": 1237,
      "load": 1238,
      "lj": 1239,
      "sx": 1240,
      "i3": 1241,
      "kt": 1242,
      "ai": 1243,
      "files": 1244,
      "lt": 1245,
      "g4": 1246,
      "tea": 1247,
      "ucl": 1248,
      "jcm": 1249,
      "md": 1250,
      "fra": 1251,
      "fq": 1252,
      "ke": 1253,
      "au": 1254,
      "bv": 1255,
      "ld": 1256,
      "m7": 1257,
      "bea": 1258,
      "wamsm": 1259,
      "617": 1260,
      "kx": 1261,
      "yz": 1262,
      "tele": 1263,
      "blob": 1264,
      "bro": 1265,
      "pn": 1266,
      "cons": 1267,
      "fac": 1268,
      "email": 1269,
      "6q": 1270,
      "wlhrm": 1271,
      "ku": 1272,
      "f65": 1273,
      "stre": 1274,
      "wsjcm": 1275,
      "pq": 1276,
      "zg": 1277,
      "rat": 1278,
      "iq": 1279,
      "u2": 1280,
      "z3": 1281,
      "kg": 1282,
      "eff": 1283,
      "400": 1284,
      "ej": 1285,
      "kto": 1286,
      "fresh": 1287,
      "a18": 1288,
      "mer": 1289,
      "mb": 1290,
      "mc": 1291,
      "mv": 1292,
      "ade": 1293,
      "kh": 1294,
      "u280": 1295,
      "inter": 1296,
      "kar": 1297,
      "mac": 1298,
      "x3": 1299,
      "9ea": 1300,
      "zs": 1301,
      "6g": 1302,
      "cv": 1303,
      "ers": 1304,
      "495": 1305,
      "tn": 1306,
      "rr": 1307,
      "set": 1308,
      "p3": 1309,
      "35d": 1310,
      "eq": 1311,
      "ay": 1312,
      "mes": 1313,
      "mon": 1314,
      "eg": 1315,
      "z5": 1316,
      "tions": 1317,
      "pj": 1318,
      "bda": 1319,
      "770": 1320,
      "docs": 1321,
      "e07": 1322,
      "bba": 1323,
      "nv": 1324,
      "auth": 1325,
      "x4": 1326,
      "cac": 1327,
      "001": 1328,
      "mobile": 1329,
      "002": 1330,
      "all": 1331,
      "od": 1332,
      "r7": 1333,
      "roup": 1334,
      "aut": 1335,
      "980": 1336,
      "6h": 1337,
      "ccf": 1338,
      "637": 1339,
      "ges": 1340,
      "ics": 1341,
      "sta": 1342,
      "sf": 1343,
      "tw": 1344,
      "qi": 1345,
      "pri": 1346,
      "sha": 1347,
      "tu": 1348,
      "777": 1349,
      "gj": 1350,
      "b00": 1351,
      "zj": 1352,
      "ac0": 1353,
      "1d0": 1354,
      "earch": 1355,
      "sch": 1356,
      "e47": 1357,
      "baf": 1358,
      "647": 1359,
      "bc5": 1360,
      "np": 1361,
      "sw": 1362,
      "eh": 1363,
      "kj": 1364,
      "ba3": 1365,
      "ext": 1366,
      "wfram": 1367,
      "5o": 1368,
      "bad": 1369,
      "ffic": 1370,
      "push": 1371,
      "k3": 1372,
      "z2": 1373,
      "sr": 1374,
      "news": 1375,
      "7t": 1376,
      "rabl": 1377,
      "master": 1378,
      "bw": 1379,
      "b40": 1380,
      "kv": 1381,
      "eac": 1382,
      "fu": 1383,
      "b27": 1384,
      "eal": 1385,
      "ns3": 1386,
      "nj": 1387,
      "inx": 1388,
      "uni": 1389,
      "n6": 1390,
      "ce8": 1391,
      "box": 1392,
      "k6": 1393,
      "mega": 1394,
      "south": 1395,
      "640": 1396,
      "pop": 1397,
      "674": 1398,
      "6ad": 1399,
      "vet": 1400,
      "ess": 1401,
      "bed": 1402,
      "sj": 1403,
      "par": 1404,
      "oy": 1405,
      "xi": 1406,
      "xg": 1407,
      "c189": 1408,
      "mark": 1409,
      "sci": 1410,
      "tro": 1411,
      "t4": 1412,
      "dom": 1413,
      "prd": 1414,
      "tor": 1415,
      "7n": 1416,
      "col": 1417,
      "uter": 1418,
      "e1f": 1419,
      "a3324": 1420,
      "370": 1421,
      "6j": 1422,
      "sq": 1423,
      "ick": 1424,
      "ed3": 1425,
      "5u": 1426,
      "mw": 1427,
      "a19": 1428,
      "be5": 1429,
      "darnuid": 1430,
      "zu": 1431,
      "stud": 1432,
      "ygt": 1433,
      "zh": 1434,
      "270": 1435,
      "cw": 1436,
      "one": 1437,
      "9ff": 1438,
      "vw": 1439,
      "and": 1440,
      "ac3": 1441,
      "ace": 1442,
      "ce4": 1443,
      "cbd": 1444,
      "kq": 1445,
      "b43": 1446,
      "n0": 1447,
      "map": 1448,
      "005": 1449,
      "content": 1450,
      "94f": 1451,
      "000": 1452,
      "c4a": 1453,
      "2o": 1454,
      "e8d": 1455,
      "lp": 1456,
      "ber": 1457,
      "zq": 1458,
      "b6d": 1459,
      "xq": 1460,
      "l3": 1461,
      "12f": 1462,
      "iu": 1463,
      "jv": 1464,
      "zf": 1465,
      "2g": 1466,
      "b7d": 1467,
      "944": 1468,
      "def": 1469,
      "9ef": 1470,
      "ea4": 1471,
      "unes": 1472,
      "11f": 1473,
      "e98": 1474,
      "z4": 1475,
      "5y": 1476,
      "upda": 1477,
      "a30": 1478,
      "zc": 1479,
      "ugwq": 1480,
      "1c0": 1481,
      "ben": 1482,
      "dca": 1483,
      "5h": 1484,
      "9c7": 1485,
      "karma": 1486,
      "5x": 1487,
      "open": 1488,
      "t3": 1489,
      "test": 1490,
      "eop": 1491,
      "dff": 1492,
      "b9f": 1493,
      "c60": 1494,
      "hm": 1495,
      "nn": 1496,
      "bdf": 1497,
      "7g": 1498,
      "5s": 1499,
      "ali": 1500,
      "hostkarma": 1501,
      "europ": 1502,
      "ence": 1503,
      "rel": 1504,
      "ina": 1505,
      "inm": 1506,
      "itunes": 1507,
      "mpl": 1508,
      "cc0": 1509,
      "tg": 1510,
      "ced": 1511,
      "tx": 1512,
      "dbf": 1513,
      "westeurope": 1514,
      "66a": 1515,
      "rf": 1516,
      "930": 1517,
      "843": 1518,
      "e14": 1519,
      "chan": 1520,
      "acces": 1521,
      "eed": 1522,
      "snn": 1523,
      "lk": 1524,
      "fls": 1525,
      "968": 1526,
      "yj": 1527,
      "lv": 1528,
      "pmf": 1529,
      "e75": 1530,
      "lx": 1531,
      "down": 1532,
      "d1f": 1533,
      "630": 1534,
      "1ca": 1535,
      "c88": 1536,
      "ii": 1537,
      "y3": 1538,
      "77d": 1539,
      "804": 1540,
      "ads": 1541,
      "ecf": 1542,
      "b2f": 1543,
      "da7": 1544,
      "e6a": 1545,
      "hw": 1546,
      "probe": 1547,
      "tm": 1548,
      "e3f": 1549,
      "pw": 1550,
      "nf": 1551,
      "b44": 1552,
      "5hn": 1553,
      "68f": 1554,
      "spoint": 1555,
      "drive": 1556,
      "k4": 1557,
      "cont": 1558,
      "pool": 1559,
      "oc": 1560,
      "1a8": 1561,
      "mance": 1562,
      "accesspoint": 1563,
      "ef8": 1564,
      "z7": 1565,
      "2d3": 1566,
      "b93": 1567,
      "1a3": 1568,
      "perfor": 1569,
      "cor": 1570,
      "stream": 1571,
      "uu": 1572,
      "690": 1573,
      "oned": 1574,
      "003": 1575,
      "gc": 1576,
      "nh": 1577,
      "jour": 1578,
      "eng": 1579,
      "680": 1580,
      "tech": 1581,
      "yh": 1582,
      "the": 1583,
      "6p": 1584,
      "e17": 1585,
      "jr": 1586,
      "25a": 1587,
      "850": 1588,
      "mta": 1589,
      "auto": 1590,
      "performance": 1591,
      "e4f": 1592,
      "snnq": 1593,
      "c07": 1594,
      "fa3": 1595,
      "807": 1596,
      "eko": 1597,
      "get": 1598,
      "45a": 1599,
      "650": 1600,
      "90a": 1601,
      "dw": 1602,
      "download": 1603,
      "key": 1604,
      "9ca": 1605,
      "8c3": 1606,
      "y2": 1607,
      "m1": 1608,
      "t2": 1609,
      "ah": 1610,
      "u7": 1611,
      "images": 1612,
      "jf": 1613,
      "relay": 1614,
      "670": 1615,
      "b83": 1616,
      "k2": 1617,
      "sz": 1618,
      "x2": 1619,
      "l6": 1620,
      "ov": 1621,
      "xf": 1622,
      "rect": 1623,
      "979": 1624,
      "440": 1625,
      "257": 1626,
      "bb0": 1627,
      "dv": 1628,
      "y4": 1629,
      "bec": 1630,
      "full": 1631,
      "b0a": 1632,
      "e37": 1633,
      "ib": 1634,
      "offic": 1635,
      "waws": 1636,
      "fak": 1637,
      "r0": 1638,
      "ada": 1639,
      "645": 1640,
      "87f": 1641,
      "280": 1642,
      "wsinm": 1643,
      "uri": 1644,
      "4g5e6": 1645,
      "542": 1646,
      "8bb": 1647,
      "3p": 1648,
      "i7": 1649,
      "25c": 1650,
      "c3f": 1651,
      "493": 1652,
      "a00": 1653,
      "group": 1654,
      "13d": 1655,
      "b3e": 1656,
      "685": 1657,
      "aj": 1658,
      "l2": 1659,
      "8ca": 1660,
      "ront": 1661,
      "chem": 1662,
      "end": 1663,
      "eopbg": 1664,
      "b54": 1665,
      "est": 1666,
      "tz": 1667,
      "yq": 1668,
      "sky": 1669,
      "kp": 1670,
      "ea2": 1671,
      "648": 1672,
      "d90": 1673,
      "eba": 1674,
      "g7": 1675,
      "kr": 1676,
      "b50": 1677,
      "event": 1678,
      "6e8": 1679,
      "970": 1680,
      "azsc": 1681,
      "n7": 1682,
      "y5": 1683,
      "950": 1684,
      "win": 1685,
      "ealth": 1686,
      "lh": 1687,
      "b33": 1688,
      "tq": 1689,
      "edf": 1690,
      "6d8": 1691,
      "jm": 1692,
      "b09": 1693,
      "way": 1694,
      "77c": 1695,
      "dev": 1696,
      "ab5": 1697,
      "d9d": 1698,
      "eur": 1699,
      "6s": 1700,
      "exp": 1701,
      "lg": 1702,
      "a90": 1703,
      "fw": 1704,
      "lz": 1705,
      "uv": 1706,
      "ftn": 1707,
      "secure": 1708,
      "bac": 1709,
      "6v": 1710,
      "267": 1711,
      "697": 1712,
      "gv": 1713,
      "aa0": 1714,
      "bc7": 1715,
      "gen": 1716,
      "bd0": 1717,
      "825": 1718,
      "b4f": 1719,
      "e40": 1720,
      "lq": 1721,
      "ow": 1722,
      "6e2": 1723,
      "98a": 1724,
      "db3": 1725,
      "d55": 1726,
      "tch": 1727,
      "black": 1728,
      "rac": 1729,
      "6f0": 1730,
      "gate": 1731,
      "oz": 1732,
      "xs": 1733,
      "ija": 1734,
      "ad0": 1735,
      "nel": 1736,
      "phar": 1737,
      "bcd": 1738,
      "654": 1739,
      "j7": 1740,
      "b37": 1741,
      "jc": 1742,
      "o3": 1743,
      "6d0": 1744,
      "fulldom": 1745,
      "jw": 1746,
      "oh": 1747,
      "1f0": 1748,
      "pub": 1749,
      "bef": 1750,
      "s7": 1751,
      "9x": 1752,
      "ght": 1753,
      "main": 1754,
      "grf": 1755,
      "b85": 1756,
      "be0": 1757,
      "004": 1758,
      "527": 1759,
      "ba0": 1760,
      "qw": 1761,
      "bca": 1762,
      "e08": 1763,
      "e27": 1764,
      "pm": 1765,
      "top": 1766,
      "946": 1767,
      "1df": 1768,
      "ze": 1769,
      "produc": 1770,
      "9a0": 1771,
      "b2a": 1772,
      "pok": 1773,
      "gm": 1774,
      "o4": 1775,
      "1fc": 1776,
      "uw": 1777,
      "journal": 1778,
      "24f": 1779,
      "bbf": 1780,
      "bf0": 1781,
      "5k": 1782,
      "h7": 1783,
      "market": 1784,
      "435": 1785,
      "gf": 1786,
      "o2": 1787,
      "s5": 1788,
      "ed0": 1789,
      "6e0": 1790,
      "450": 1791,
      "ard": 1792,
      "zr": 1793,
      "alb": 1794,
      "ings": 1795,
      "oq": 1796,
      "p7": 1797,
      "507": 1798,
      "student": 1799,
      "add": 1800,
      "c33": 1801,
      "ran": 1802,
      "773": 1803,
      "41a": 1804,
      "mas": 1805,
      "hpa7kn": 1806,
      "europec": 1807,
      "b92": 1808,
      "dec": 1809,
      "657": 1810,
      "gew1": 1811,
      "419": 1812,
      "dra": 1813,
      "ba7": 1814,
      "cdf": 1815,
      "a53": 1816,
      "949": 1817,
      "zv": 1818,
      "ef0": 1819,
      "ce0": 1820,
      "58f": 1821,
      "ab3": 1822,
      "ion": 1823,
      "rw": 1824,
      "488": 1825,
      "f88": 1826,
      "6a0": 1827,
      "b47": 1828,
      "xm": 1829,
      "cd0": 1830,
      "c2e": 1831,
      "b35": 1832,
      "ed7": 1833,
      "be7": 1834,
      "3k": 1835,
      "bcf": 1836,
      "mil": 1837,
      "t5": 1838,
      "media7": 1839,
      "gd": 1840,
      "b45": 1841,
      "287": 1842,
      "sni": 1843,
      "c30": 1844,
      "ad3": 1845,
      "ad7": 1846,
      "8e4": 1847,
      "ron": 1848,
      "aq": 1849,
      "e33": 1850,
      "i6": 1851,
      "ea0": 1852,
      "273": 1853,
      "hls": 1854,
      "635": 1855,
      "8d8": 1856,
      "678": 1857,
      "870": 1858,
      "d16": 1859,
      "adf": 1860,
      "b70": 1861,
      "b30": 1862,
      "agri": 1863,
      "4ac": 1864,
      "633": 1865,
      "bff": 1866,
      "b53": 1867,
      "655": 1868,
      "c70": 1869,
      "ekof": 1870,
      "n1": 1871,
      "ble": 1872,
      "695": 1873,
      "dsca": 1874,
      "ae4": 1875,
      "sup": 1876,
      "643": 1877,
      "684": 1878,
      "bc4": 1879,
      "653": 1880,
      "6c5": 1881,
      "cec": 1882,
      "958a": 1883,
      "sv": 1884,
      "673": 1885,
      "20f": 1886,
      "007": 1887,
      "de0": 1888,
      "683": 1889,
      "bench": 1890,
      "buy": 1891,
      "rekto": 1892,
      "cent": 1893,
      "bd7": 1894,
      "2a0": 1895,
      "937": 1896,
      "675": 1897,
      "dio": 1898,
      "rektorat": 1899,
      "ker": 1900,
      "6e7": 1901,
      "eee": 1902,
      "b9d": 1903,
      "vb": 1904,
      "644": 1905,
      "dre": 1906,
      "cde": 1907,
      "ital": 1908,
      "bb7": 1909,
      "hf": 1910,
      "sea": 1911,
      "xj": 1912,
      "933": 1913,
      "8f9": 1914,
      "1e7": 1915,
      "b63": 1916,
      "qm": 1917,
      "b1f": 1918,
      "457": 1919,
      "cf7": 1920,
      "d07": 1921,
      "a44": 1922,
      "l5": 1923,
      "qc": 1924,
      "bf7": 1925,
      "ce7": 1926,
      "687": 1927,
      "b60": 1928,
      "18f": 1929,
      "25f": 1930,
      "64f": 1931,
      "eec": 1932,
      "farm": 1933,
      "e35": 1934,
      "6e5": 1935,
      "98f": 1936,
      "bd5": 1937,
      "srv": 1938,
      "xw": 1939,
      "ba4": 1940,
      "0000": 1941,
      "cef": 1942,
      "j6": 1943,
      "xu": 1944,
      "eap": 1945,
      "local": 1946,
      "b75": 1947,
      "2y": 1948,
      "455": 1949,
      "c50": 1950,
      "307": 1951,
      "663": 1952,
      "a10": 1953,
      "b6f": 1954,
      "ded": 1955,
      "775": 1956,
      "283": 1957,
      "1a0": 1958,
      "6c7": 1959,
      "b9a": 1960,
      "zi": 1961,
      "407": 1962,
      "ger": 1963,
      "b80": 1964,
      "k7": 1965,
      "uns": 1966,
      "gb": 1967,
      "547": 1968,
      "de7": 1969,
      "984": 1970,
      "470": 1971,
      "b8f": 1972,
      "td": 1973,
      "b03": 1974,
      "ee0": 1975,
      "nrb": 1976,
      "6e3": 1977,
      "4g5edns": 1978,
      "16f": 1979,
      "857": 1980,
      "4y": 1981,
      "teams": 1982,
      "987": 1983,
      "fff": 1984,
      "1a7": 1985,
      "conn": 1986,
      "b95": 1987,
      "cca": 1988,
      "cc4": 1989,
      "cid": 1990,
      "vec": 1991,
      "scover": 1992,
      "rid": 1993,
      "x7": 1994,
      "z6": 1995,
      "ed5": 1996,
      "ad5": 1997,
      "bb3": 1998,
      "eef": 1999,
      "ea3": 2000,
      "9f0": 2001,
      "vip": 2002,
      "4a4": 2003,
      "960": 2004,
      "ew": 2005,
      "sd": 2006,
      "be4": 2007,
      "b55": 2008,
      "4d5": 2009,
      "blog": 2010,
      "ns4": 2011,
      "274": 2012,
      "mts": 2013,
      "macy": 2014,
      "e57": 2015,
      "les": 2016,
      "634": 2017,
      "ult": 2018,
      "ena": 2019,
      "asset": 2020,
      "lab": 2021,
      "ba5": 2022,
      "694": 2023,
      "65f": 2024,
      "9d0": 2025,
      "cer": 2026,
      "hv": 2027,
      "ec5": 2028,
      "ite": 2029,
      "1d3": 2030,
      "new": 2031,
      "zm": 2032,
      "b74": 2033,
      "hc": 2034,
      "lf": 2035,
      "pv": 2036,
      "car": 2037,
      "ant": 2038,
      "trade": 2039,
      "5n": 2040,
      "985": 2041,
      "b77": 2042,
      "b57": 2043,
      "bc0": 2044,
      "ec4": 2045,
      "loud": 2046,
      "b3f": 2047,
      "b4d": 2048,
      "wsy": 2049,
      "a36": 2050,
      "e13": 2051,
      "e25": 2052,
      "q6": 2053,
      "ical": 2054,
      "eda": 2055,
      "eca": 2056,
      "b0f": 2057,
      "update": 2058,
      "1c7": 2059,
      "i935": 2060,
      "s6": 2061,
      "ac7": 2062,
      "453": 2063,
      "emon": 2064,
      "meta": 2065,
      "69f": 2066,
      "8a0": 2067,
      "e60": 2068,
      "e2f": 2069,
      "2t": 2070,
      "k5": 2071,
      "xd": 2072,
      "eaf": 2073,
      "c47": 2074,
      "6f7": 2075,
      "urier": 2076,
      "955": 2077,
      "l7": 2078,
      "63f": 2079,
      "6d4": 2080,
      "2a7": 2081,
      "lr": 2082,
      "14f": 2083,
      "22f": 2084,
      "bf4": 2085,
      "6d7": 2086,
      "660": 2087,
      "800": 2088,
      "ae8": 2089,
      "e54": 2090,
      "15f": 2091,
      "ec7": 2092,
      "bd3": 2093,
      "6d3": 2094,
      "b07": 2095,
      "61f": 2096,
      "aw": 2097,
      "cff": 2098,
      "e87": 2099,
      "matf": 2100,
      "67f": 2101,
      "devic": 2102,
      "1d7": 2103,
      "agrif": 2104,
      "1ef": 2105,
      "g6": 2106,
      "6df": 2107,
      "cf5": 2108,
      "b90": 2109,
      "b2d": 2110,
      "e80": 2111,
      "da0": 2112,
      "b7f": 2113,
      "afram": 2114,
      "cc5": 2115,
      "e28": 2116,
      "xc": 2117,
      "854": 2118,
      "943": 2119,
      "6f5": 2120,
      "1d5": 2121,
      "a50": 2122,
      "c77": 2123,
      "acf": 2124,
      "403": 2125,
      "957": 2126,
      "6a3": 2127,
      "qf": 2128,
      "a56": 2129,
      "h6": 2130,
      "tive": 2131,
      "fa0": 2132,
      "e49": 2133,
      "1c5": 2134,
      "vin": 2135,
      "ca0": 2136,
      "6d5": 2137,
      "cf0": 2138,
      "inxmx": 2139,
      "b28": 2140,
      "b97": 2141,
      "c10": 2142,
      "wil": 2143,
      "19f": 2144,
      "93f": 2145,
      "333": 2146,
      "b73": 2147,
      "bb5": 2148,
      "b5f": 2149,
      "cf3": 2150,
      "ccd": 2151,
      "16245": 2152,
      "ad4": 2153,
      "anx": 2154,
      "1c4": 2155,
      "ebf": 2156,
      "658": 2157,
      "ce3": 2158,
      "628": 2159,
      "fin": 2160,
      "pd": 2161,
      "13f": 2162,
      "23f": 2163,
      "sonar": 2164,
      "eopbgr": 2165,
      "b64": 2166,
      "e97": 2167,
      "p0": 2168,
      "ea5": 2169,
      "2f0": 2170,
      "8f5": 2171,
      "oa": 2172,
      "plo": 2173,
      "ce5": 2174,
      "be3": 2175,
      "b04": 2176,
      "6f4": 2177,
      "art": 2178,
      "xa": 2179,
      "258": 2180,
      "7r": 2181,
      "b1a": 2182,
      "e30": 2183,
      "jd": 2184,
      "m6": 2185,
      "853": 2186,
      "6af": 2187,
      "q4f": 2188,
      "s1624": 2189,
      "330": 2190,
      "ffh": 2191,
      "4g5edn": 2192,
      "1bf": 2193,
      "12a": 2194,
      "405": 2195,
      "caf": 2196,
      "1d4": 2197,
      "b88": 2198,
      "vel": 2199,
      "daf": 2200,
      "977": 2201,
      "e45": 2202,
      "o5": 2203,
      "6a5": 2204,
      "ed4": 2205,
      "934": 2206,
      "677": 2207,
      "275": 2208,
      "b87": 2209,
      "sac": 2210,
      "10f": 2211,
      "855": 2212,
      "simpl": 2213,
      "o7": 2214,
      "courier": 2215,
      "983": 2216,
      "6ff": 2217,
      "nm": 2218,
      "qd": 2219,
      "6a4": 2220,
      "954": 2221,
      "ebb": 2222,
      "san": 2223,
      "9af": 2224,
      "947": 2225,
      "990": 2226,
      "c1f": 2227,
      "yu": 2228,
      "604": 2229,
      "c2d": 2230,
      "ee7": 2231,
      "yr": 2232,
      "ad2": 2233,
      "mart": 2234,
      "c43": 2235,
      "6bf": 2236,
      "aff": 2237,
      "ea7": 2238,
      "600": 2239,
      "gre": 2240,
      "c44": 2241,
      "835": 2242,
      "bde": 2243,
      "pf": 2244,
      "mar": 2245,
      "bnc": 2246,
      "snnqck": 2247,
      "b05": 2248,
      "6a7": 2249,
      "chat": 2250,
      "track": 2251,
      "xr": 2252,
      "coun": 2253,
      "dig": 2254,
      "5z": 2255,
      "a27": 2256,
      "c40": 2257,
      "her": 2258,
      "u6": 2259,
      "c5f": 2260,
      "92f": 2261,
      "6f3": 2262,
      "sign": 2263,
      "work": 2264,
      "6c3": 2265,
      "gfs": 2266,
      "xv": 2267,
      "85f": 2268,
      "607": 2269,
      "soci": 2270,
      "664": 2271,
      "da3": 2272,
      "bb4": 2273,
      "708": 2274,
      "azure": 2275,
      "6fd": 2276,
      "9c0": 2277,
      "c8d": 2278,
      "e15": 2279,
      "603": 2280,
      "fa7": 2281,
      "cust": 2282,
      "e34": 2283,
      "c7f": 2284,
      "6cd": 2285,
      "693": 2286,
      "b84": 2287,
      "cbf": 2288,
      "hb": 2289,
      "95f": 2290,
      "sion": 2291,
      "pharmacy": 2292,
      "e9d": 2293,
      "605": 2294,
      "9a7": 2295,
      "northeurope": 2296,
      "c90": 2297,
      "c80": 2298,
      "y7": 2299,
      "ec3": 2300,
      "c4f": 2301,
      "zoom": 2302,
      "wsydm": 2303,
      "b8a": 2304,
      "sub": 2305,
      "ed8": 2306,
      "953": 2307,
      "dot": 2308,
      "1af": 2309,
      "trouter": 2310,
      "623": 2311,
      "zw": 2312,
      "cro": 2313,
      "c37": 2314,
      "coll": 2315,
      "faf": 2316,
      "2df": 2317,
      "x5": 2318,
      "1ff": 2319,
      "bd4": 2320,
      "point": 2321,
      "imap": 2322,
      "pokemon": 2323,
      "europecns": 2324,
      "6c0": 2325,
      "c65": 2326,
      "yw": 2327,
      "da4": 2328,
      "350": 2329,
      "2f7": 2330,
      "cad": 2331,
      "lm": 2332,
      "688": 2333,
      "b34": 2334,
      "2af": 2335,
      "9a5": 2336,
      "b8d": 2337,
      "ish": 2338,
      "enti": 2339,
      "1a4": 2340,
      "2d0": 2341,
      "9a4": 2342,
      "users": 2343,
      "e44": 2344,
      "val": 2345,
      "b4a": 2346,
      "8f0": 2347,
      "wea": 2348,
      "698": 2349,
      "1cd": 2350,
      "627": 2351,
      "redi": 2352,
      "18d": 2353,
      "616": 2354,
      "e90": 2355,
      "health": 2356,
      "t7": 2357,
      "ef7": 2358,
      "kom": 2359,
      "kf": 2360,
      "988": 2361,
      "2z": 2362,
      "b23": 2363,
      "of": 2364,
      "yi": 2365,
      "ac5": 2366,
      "858": 2367,
      "77f": 2368,
      "bdd": 2369,
      "c57": 2370,
      "wpc": 2371,
      "940": 2372,
      "mana": 2373,
      "851": 2374,
      "da5": 2375,
      "broad": 2376,
      "ei": 2377,
      "6e4": 2378,
      "bbc": 2379,
      "e88": 2380,
      "b3d": 2381,
      "9a3": 2382,
      "69d": 2383,
      "b1d": 2384,
      "544": 2385,
      "1f7": 2386,
      "28f": 2387,
      "974": 2388,
      "9bf": 2389,
      "b67": 2390,
      "ca7": 2391,
      "60f": 2392,
      "2d7": 2393,
      "3l": 2394,
      "e70": 2395,
      "9d7": 2396,
      "clin": 2397,
      "websit": 2398,
      "927": 2399,
      "17f": 2400,
      "284": 2401,
      "45f": 2402,
      "nam": 2403,
      "e64": 2404,
      "sun": 2405,
      "ee3": 2406,
      "b68": 2407,
      "e93": 2408,
      "ef4": 2409,
      "b5d": 2410,
      "ups": 2411,
      "e63": 2412,
      "km": 2413,
      "pap": 2414,
      "vps": 2415,
      "edd": 2416,
      "975": 2417,
      "ee5": 2418,
      "667": 2419,
      "b24": 2420,
      "5hne6": 2421,
      "1e0": 2422,
      "2s": 2423,
      "6ac": 2424,
      "963": 2425,
      "e77": 2426,
      "hel": 2427,
      "zon": 2428,
      "543": 2429,
      "973": 2430,
      "1dd": 2431,
      "2d5": 2432,
      "b65": 2433,
      "eme": 2434,
      "ead": 2435,
      "20d": 2436,
      "cabo": 2437,
      "bbd": 2438,
      "97f": 2439,
      "domain": 2440,
      "c34": 2441,
      "2f3": 2442,
      "sport": 2443,
      "bank": 2444,
      "daa": 2445,
      "335": 2446,
      "907": 2447,
      "e7f": 2448,
      "b48": 2449,
      "bc8": 2450,
      "9cd": 2451,
      "900": 2452,
      "b13": 2453,
      "b94": 2454,
      "cc7": 2455,
      "ym": 2456,
      "374": 2457,
      "c55": 2458,
      "home": 2459,
      "plat": 2460,
      "625": 2461,
      "545": 2462,
      "eaa": 2463,
      "343": 2464,
      "form": 2465,
      "production": 2466,
      "9f7": 2467,
      "sonic": 2468,
      "zd": 2469,
      "stu": 2470,
      "ff0": 2471,
      "475": 2472,
      "fa5": 2473,
      "b0d": 2474,
      "1a5": 2475,
      "9f3": 2476,
      "userstorage": 2477,
      "1e4": 2478,
      "e67": 2479,
      "kw": 2480,
      "408": 2481,
      "c0d": 2482,
      "bus": 2483,
      "pra": 2484,
      "yf": 2485,
      "774f": 2486,
      "875": 2487,
      "ee9": 2488,
      "ecd": 2489,
      "2a3": 2490,
      "9df": 2491,
      "fsfv": 2492,
      "2l": 2493,
      "mun": 2494,
      "search": 2495,
      "14d": 2496,
      "11d": 2497,
      "p6": 2498,
      "portal": 2499,
      "995": 2500,
      "c2f": 2501,
      "cop": 2502,
      "938": 2503,
      "337": 2504,
      "964": 2505,
      "994": 2506,
      "c00": 2507,
      "nr": 2508,
      "19d": 2509,
      "ebo": 2510,
      "sbb": 2511,
      "y6": 2512,
      "624": 2513,
      "e6f": 2514,
      "iw": 2515,
      "mit": 2516,
      "tc": 2517,
      "acd": 2518,
      "baa": 2519,
      "6dd": 2520,
      "aig": 2521,
      "b98": 2522,
      "e10": 2523,
      "gds": 2524,
      "c53": 2525,
      "2d4": 2526,
      "8d0": 2527,
      "amp": 2528,
      "yc": 2529,
      "665": 2530,
      "e95": 2531,
      "852": 2532,
      "ca5": 2533,
      "163data": 2534,
      "suw": 2535,
      "c68": 2536,
      "15d": 2537,
      "6ea": 2538,
      "1f3": 2539,
      "b58": 2540,
      "b3a": 2541,
      "9d3": 2542,
      "c2a": 2543,
      "pull": 2544,
      "404": 2545,
      "del": 2546,
      "803": 2547,
      "bd8": 2548,
      "assets": 2549,
      "1ac": 2550,
      "c35": 2551,
      "cd4": 2552,
      "e74": 2553,
      "9d4": 2554,
      "62f": 2555,
      "b18": 2556,
      "b6a": 2557,
      "dsp": 2558,
      "fmf": 2559,
      "25d": 2560,
      "cd5": 2561,
      "ca4": 2562,
      "288": 2563,
      "bf3": 2564,
      "c74": 2565,
      "ams": 2566,
      "6ed": 2567,
      "mus": 2568,
      "webmail": 2569,
      "e8f": 2570,
      "play": 2571,
      "bf5": 2572,
      "be2": 2573,
      "ee4": 2574,
      "668": 2575,
      "c27": 2576,
      "e50": 2577,
      "hit": 2578,
      "ice": 2579,
      "22d": 2580,
      "334": 2581,
      "805": 2582,
      "991": 2583,
      "config": 2584,
      "e12": 2585,
      "str": 2586,
      "23d": 2587,
      "1f5": 2588,
      "873": 2589,
      "1c3": 2590,
      "eb7": 2591,
      "isp": 2592,
      "ill": 2593,
      "de4": 2594,
      "904": 2595,
      "905": 2596,
      "c05": 2597,
      "ell": 2598,
      "akama": 2599,
      "965": 2600,
      "998": 2601,
      "b69": 2602,
      "c67": 2603,
      "hd": 2604,
      "van": 2605,
      "ba8": 2606,
      "cd7": 2607,
      "978": 2608,
      "bit": 2609,
      "nw": 2610,
      "yd": 2611,
      "373": 2612,
      "a4f": 2613,
      "cb7": 2614,
      "de5": 2615,
      "6c4": 2616,
      "ven": 2617,
      "xe": 2618,
      "14a": 2619,
      "9d5": 2620,
      "96cf": 2621,
      "outlook": 2622,
      "consmr": 2623,
      "c83": 2624,
      "54f": 2625,
      "903": 2626,
      "9f5": 2627,
      "b10": 2628,
      "yv": 2629,
      "11a": 2630,
      "6m": 2631,
      "c8f": 2632,
      "e69": 2633,
      "e8a": 2634,
      "c868": 2635,
      "e85": 2636,
      "ef3": 2637,
      "star": 2638,
      "94d": 2639,
      "883": 2640,
      "1cf": 2641,
      "1b0": 2642,
      "925": 2643,
      "bc3": 2644,
      "c24": 2645,
      "cea": 2646,
      "c95": 2647,
      "e19": 2648,
      "e55": 2649,
      "fa4": 2650,
      "book": 2651,
      "mgd": 2652,
      "link": 2653,
      "1bd": 2654,
      "6b4": 2655,
      "oj": 2656,
      "efd": 2657,
      "16a": 2658,
      "ins": 2659,
      "40f": 2660,
      "de3": 2661,
      "2a4": 2662,
      "305": 2663,
      "4g5e6ns": 2664,
      "b20": 2665,
      "64d": 2666,
      "9fd": 2667,
      "c6a": 2668,
      "bf2": 2669,
      "be8": 2670,
      "c04": 2671,
      "84f": 2672,
      "1ed": 2673,
      "6bb": 2674,
      "b6e": 2675,
      "23a": 2676,
      "b38": 2677,
      "993": 2678,
      "e53": 2679,
      "afd": 2680,
      "channel": 2681,
      "1ec": 2682,
      "ums": 2683,
      "v1": 2684,
      "12d": 2685,
      "e73": 2686,
      "88f": 2687,
      "2a5": 2688,
      "9ac": 2689,
      "e1a": 2690,
      "kc": 2691,
      "17d": 2692,
      "33f": 2693,
      "967": 2694,
      "c98": 2695,
      "rus": 2696,
      "cd3": 2697,
      "ce2": 2698,
      "5827": 2699,
      "1ad": 2700,
      "945": 2701,
      "e68": 2702,
      "tiv": 2703,
      "355": 2704,
      "mastercabo": 2705,
      "9e0": 2706,
      "b25": 2707,
      "cb4": 2708,
      "1d8": 2709,
      "2x": 2710,
      "6b7": 2711,
      "ef5": 2712,
      "ste": 2713,
      "47f": 2714,
      "6f8": 2715,
      "c03": 2716,
      "share": 2717,
      "6cf": 2718,
      "efa": 2719,
      "orig": 2720,
      "b5a": 2721,
      "92d": 2722,
      "9d02": 2723,
      "46da": 2724,
      "1b7": 2725,
      "c8a": 2726,
      "e65": 2727,
      "pho": 2728,
      "24d": 2729,
      "34f": 2730,
      "b14": 2731,
      "b15": 2732,
      "928": 2733,
      "hub": 2734,
      "ca3": 2735,
      "874": 2736,
      "32c": 2737,
      "6ec": 2738,
      "back": 2739,
      "e00": 2740,
      "18a": 2741,
      "958": 2742,
      "b08": 2743,
      "1c8": 2744,
      "ukwest": 2745,
      "press": 2746,
      "cus": 2747,
      "edn": 2748,
      "ff7": 2749,
      "social": 2750,
      "1bb": 2751,
      "c45": 2752,
      "ebd": 2753,
      "548": 2754,
      "ff5": 2755,
      "c73": 2756,
      "e43": 2757,
      "613": 2758,
      "669": 2759,
      "910": 2760,
      "jb": 2761,
      "473": 2762,
      "353": 2763,
      "19a": 2764,
      "63d": 2765,
      "e7d": 2766,
      "e5f": 2767,
      "tal": 2768,
      "1f4": 2769,
      "1fd": 2770,
      "948": 2771,
      "ugwq6e": 2772,
      "ugwq4e": 2773,
      "anal": 2774,
      "p1": 2775,
      "ton": 2776,
      "ere": 2777,
      "774": 2778,
      "92a": 2779,
      "9dd": 2780,
      "9f4": 2781,
      "wss": 2782,
      "2e9": 2783,
      "b16": 2784,
      "e16": 2785,
      "bfd": 2786,
      "98d": 2787,
      "c93": 2788,
      "obe": 2789,
      "9aa": 2790,
      "610": 2791,
      "c64": 2792,
      "c69": 2793,
      "e24": 2794,
      "15a": 2795,
      "608": 2796,
      "97d": 2797,
      "bet": 2798,
      "cf4": 2799,
      "dscd": 2800,
      "gslb": 2801,
      "telecom": 2802,
      "odc": 2803,
      "sdk": 2804,
      "tikto": 2805,
      "can": 2806,
      "fpn": 2807,
      "wb": 2808,
      "68d": 2809,
      "638": 2810,
      "375": 2811,
      "discover": 2812,
      "cc3": 2813,
      "era": 2814,
      "e23": 2815,
      "13a": 2816,
      "cda": 2817,
      "5g": 2818,
      "c84": 2819,
      "cf8": 2820,
      "9a8": 2821,
      "bce": 2822,
      "qe": 2823,
      "35f": 2824,
      "443": 2825,
      "filed": 2826,
      "1da": 2827,
      "ou": 2828,
      "bb8": 2829,
      "1f8": 2830,
      "c4d": 2831,
      "62d": 2832,
      "85d": 2833,
      "eck": 2834,
      "604d": 2835,
      "474": 2836,
      "80f": 2837,
      "dscg": 2838,
      "6ba": 2839,
      "b17": 2840,
      "c28": 2841,
      "cb5": 2842,
      "eb5": 2843,
      "cdd": 2844,
      "90f": 2845,
      "83f": 2846,
      "ther": 2847,
      "969": 2848,
      "e84": 2849,
      "aca": 2850,
      "778": 2851,
      "ance": 2852,
      "9g": 2853,
      "cfa": 2854,
      "eea": 2855,
      "ech": 2856,
      "c75": 2857,
      "c0f": 2858,
      "effc868": 2859,
      "ce81c": 2860,
      "96cf774f": 2861,
      "effc868ce81c": 2862,
      "1b4": 2863,
      "3x": 2864,
      "pbz": 2865,
      "008": 2866,
      "2aa": 2867,
      "914": 2868,
      "9fa": 2869,
      "cba": 2870,
      "edat": 2871,
      "very": 2872,
      "2fb": 2873,
      "sip": 2874,
      "e0f": 2875,
      "9ec": 2876,
      "ac4": 2877,
      "cds": 2878,
      "2ff": 2879,
      "4k": 2880,
      "6ca": 2881,
      "917": 2882,
      "cns": 2883,
      "pic": 2884,
      "20a": 2885,
      "1fa": 2886,
      "6ef": 2887,
      "7bf": 2888,
      "c25": 2889,
      "ial": 2890,
      "sal": 2891,
      "0003": 2892,
      "60d": 2893,
      "e03": 2894,
      "6b8": 2895,
      "contac": 2896,
      "1o": 2897,
      "512": 2898,
      "6w": 2899,
      "66d": 2900,
      "c87": 2901,
      "e9f": 2902,
      "lic": 2903,
      "ac8": 2904,
      "90d": 2905,
      "808": 2906,
      "6c8": 2907,
      "oln0": 2908,
      "c54": 2909,
      "ink": 2910,
      "908": 2911,
      "am1": 2912,
      "presen": 2913,
      "origin": 2914,
      "2j": 2915,
      "619": 2916,
      "9b7": 2917,
      "1657": 2918,
      "65d": 2919,
      "1aa": 2920,
      "4l": 2921,
      "6b5": 2922,
      "e94": 2923,
      "stack": 2924,
      "2f4": 2925,
      "rivec": 2926,
      "5f7": 2927,
      "1de": 2928,
      "3o": 2929,
      "e6d": 2930,
      "93d": 2931,
      "c7d": 2932,
      "dual": 2933,
      "264": 2934,
      "263": 2935,
      "3q": 2936,
      "363": 2937,
      "5q": 2938,
      "c19": 2939,
      "c6f": 2940,
      "6e2b": 2941,
      "eaac": 2942,
      "bel": 2943,
      "c38": 2944,
      "e4d": 2945,
      "614": 2946,
      "6b0": 2947,
      "9c5": 2948,
      "f32": 2949,
      "27f": 2950,
      "cfd": 2951,
      "any": 2952,
      "e05": 2953,
      "1ea": 2954,
      "1e5": 2955,
      "9ed": 2956,
      "c16": 2957,
      "10d": 2958,
      "6aa": 2959,
      "9d8": 2960,
      "onedrivec": 2961,
      "onedrivecl": 2962,
      "1b5": 2963,
      "4z": 2964,
      "c17": 2965,
      "cb3": 2966,
      "dprod": 2967,
      "278": 2968,
      "44f": 2969,
      "303": 2970,
      "8df": 2971,
      "048": 2972,
      "923": 2973,
      "b19": 2974,
      "sil": 2975,
      "ad8": 2976,
      "nv47": 2977,
      "ploy": 2978,
      "1ba": 2979,
      "622": 2980,
      "6da": 2981,
      "6fa": 2982,
      "cbb": 2983,
      "1535": 2984,
      "iavs": 2985,
      "hosting": 2986,
      "293": 2987,
      "c85": 2988,
      "e83": 2989,
      "2f5": 2990,
      "events": 2991,
      "dprodmgd": 2992,
      "1e3": 2993,
      "2n": 2994,
      "tes": 2995,
      "bfa": 2996,
      "884": 2997,
      "connect": 2998,
      "620": 2999,
      "7v": 3000,
      "7b7": 3001,
      "e2d": 3002,
      "time": 3003,
      "dns1": 3004,
      "95d": 3005,
      "2a8": 3006,
      "8af": 3007,
      "fdu": 3008,
      "platform": 3009,
      "924": 3010,
      "bcc": 3011,
      "ery": 3012,
      "60e": 3013,
      "ung": 3014,
      "office": 3015,
      "4o": 3016,
      "c97": 3017,
      "ens": 3018,
      "94a": 3019,
      "37f": 3020,
      "c63": 3021,
      "deploy": 3022,
      "68a": 3023,
      "997": 3024,
      "c22": 3025,
      "c9f": 3026,
      "338": 3027,
      "dns2": 3028,
      "304": 3029,
      "8f7": 3030,
      "skype": 3031,
      "915": 3032,
      "16d": 3033,
      "base": 3034,
      "harel": 3035,
      "3e2": 3036,
      "9192": 3037,
      "camp": 3038,
      "e0d": 3039,
      "43fe": 3040,
      "dscb": 3041,
      "fc6": 3042,
      "e8d5": 3043,
      "265": 3044,
      "3g": 3045,
      "c20": 3046,
      "eb4": 3047,
      "kd": 3048,
      "reso": 3049,
      "40d": 3050,
      "458": 3051,
      "615": 3052,
      "10a": 3053,
      "ress": 3054,
      "14d7": 3055,
      "mag": 3056,
      "euwe": 3057,
      "post": 3058,
      "4t": 3059,
      "7q": 3060,
      "913": 3061,
      "c9d": 3062,
      "64a": 3063,
      "27a": 3064,
      "901": 3065,
      "b7a": 3066,
      "ipv4e": 3067,
      "0o": 3068,
      "612": 3069,
      "9e7": 3070,
      "99a": 3071,
      "67d": 3072,
      "27d": 3073,
      "2p": 3074,
      "67a": 3075,
      "bf8": 3076,
      "878": 3077,
      "0k": 3078,
      "1b3": 3079,
      "2w": 3080,
      "6de": 3081,
      "854f": 3082,
      "7750": 3083,
      "c3a": 3084,
      "gateway": 3085,
      "0a0": 3086,
      "36b": 3087,
      "c9a": 3088,
      "e18": 3089,
      "cat": 3090,
      "ass": 3091,
      "eto": 3092,
      "bd9d": 3093,
      "c58": 3094,
      "ang": 3095,
      "rsc": 3096,
      "udk": 3097,
      "4x": 3098,
      "42d": 3099,
      "66f": 3100,
      "9da": 3101,
      "ean": 3102,
      "ff3": 3103,
      "37d": 3104,
      "node": 3105,
      "franc": 3106,
      "onedrive": 3107,
      "c6e": 3108,
      "e20": 3109,
      "mso": 3110,
      "caa": 3111,
      "bb50": 3112,
      "1f20": 3113,
      "cess": 3114,
      "c48": 3115,
      "c53f": 3116,
      "sig": 3117,
      "84d": 3118,
      "8a7": 3119,
      "4654": 3120,
      "5m": 3121,
      "61d": 3122,
      "9b5": 3123,
      "b12": 3124,
      "h1": 3125,
      "qb": 3126,
      "deli": 3127,
      "358": 3128,
      "e48": 3129,
      "6u": 3130,
      "96d": 3131,
      "sat": 3132,
      "9045": 3133,
      "848": 3134,
      "e04": 3135,
      "8f4": 3136,
      "phy": 3137,
      "ccfcf": 3138,
      "920": 3139,
      "91d": 3140,
      "eb3": 3141,
      "1945": 3142,
      "6e17": 3143,
      "c764": 3144,
      "888": 3145,
      "6e2b80": 3146,
      "2e3": 3147,
      "62a": 3148,
      "780": 3149,
      "96a": 3150,
      "99d": 3151,
      "18ce": 3152,
      "7770": 3153,
      "28d": 3154,
      "ce6e2b80": 3155,
      "9217": 3156,
      "9f8": 3157,
      "msg": 3158,
      "ae8ccfcf": 3159,
      "ebook": 3160,
      "604dce6e2b80": 3161,
      "9ba": 3162,
      "9b0": 3163,
      "e2a": 3164,
      "f14": 3165,
      "ecentral": 3166,
      "357": 3167,
      "c08": 3168,
      "6264": 3169,
      "bounce": 3170,
      "c15": 3171,
      "c1c": 3172,
      "ebe": 3173,
      "eb0": 3174,
      "ye": 3175,
      "23c5": 3176,
      "mat": 3177,
      "4040": 3178,
      "ban": 3179,
      "45fa": 3180,
      "bf4d": 3181,
      "3575": 3182,
      "97a0": 3183,
      "c7a": 3184,
      "df0": 3185,
      "2q": 3186,
      "c14": 3187,
      "2453": 3188,
      "icloud": 3189,
      "44b": 3190,
      "ops": 3191,
      "1be": 3192,
      "9e3": 3193,
      "9315": 3194,
      "8a4": 3195,
      "6bd": 3196,
      "15e0": 3197,
      "77a": 3198,
      "desk": 3199,
      "c3d": 3200,
      "ata": 3201,
      "8d5": 3202,
      "francecentral": 3203,
      "618": 3204,
      "b22": 3205,
      "c18": 3206,
      "sb": 3207,
      "24a": 3208,
      "tif": 3209,
      "b78": 3210,
      "2dd": 3211,
      "308": 3212,
      "e5a": 3213,
      "research": 3214,
      "1cc": 3215,
      "2m": 3216,
      "cb0": 3217,
      "g1": 3218,
      "65a": 3219,
      "60a": 3220,
      "8063": 3221,
      "c5b0": 3222,
      "503": 3223,
      "e5d": 3224,
      "3h": 3225,
      "front": 3226,
      "omega": 3227,
      "25c3": 3228,
      "ac6d": 3229,
      "0030": 3230,
      "95a": 3231,
      "b4ca": 3232,
      "eek": 3233,
      "world": 3234,
      "2h": 3235,
      "ea8": 3236,
      "on20": 3237,
      "00b0": 3238,
      "bb88": 3239,
      "2d8": 3240,
      "30f": 3241,
      "72k6": 3242,
      "4aed": 3243,
      "72k6ns": 3244,
      "7h": 3245,
      "1766": 3246,
      "98a0": 3247,
      "beu": 3248,
      "941d": 3249,
      "e0d0": 3250,
      "dd0": 3251,
      "u2813": 3252,
      "wap": 3253,
      "ec8": 3254,
      "ff4": 3255,
      "573": 3256,
      "1c60": 3257,
      "1bc0": 3258,
      "collect": 3259,
      "c23": 3260,
      "c6d": 3261,
      "e9a": 3262,
      "oi": 3263,
      "ory": 3264,
      "dnsot": 3265,
      "97a": 3266,
      "87d": 3267,
      "c5a": 3268,
      "570": 3269,
      "8dd": 3270,
      "1e27": 3271,
      "dnsotls": 3272,
      "3n": 3273,
      "66e": 3274,
      "7p": 3275,
      "982a": 3276,
      "c5d": 3277,
      "6a8": 3278,
      "82e7": 3279,
      "eastus": 3280,
      "sti": 3281,
      "18dd": 3282,
      "00d": 3283,
      "33d": 3284,
      "de8": 3285,
      "c442": 3286,
      "444": 3287,
      "342": 3288,
      "digital": 3289,
      "9ad": 3290,
      "ed1": 3291,
      "compl": 3292,
      "54d": 3293,
      "cast": 3294,
      "80d": 3295,
      "e78": 3296,
      "9a69": 3297,
      "579": 3298,
      "838": 3299,
      "4f68": 3300,
      "u2815": 3301,
      "ytics": 3302,
      "6r": 3303,
      "91f": 3304,
      "c1a": 3305,
      "163d": 3306,
      "ad4a": 3307,
      "40a": 3308,
      "85a": 3309,
      "28a": 3310,
      "950f": 3311,
      "use": 3312,
      "ee37": 3313,
      "8d3": 3314,
      "rtm": 3315,
      "1ce": 3316,
      "b6c": 3317,
      "acentral": 3318,
      "dat": 3319,
      "1fcd": 3320,
      "448": 3321,
      "cb8": 3322,
      "club": 3323,
      "3j": 3324,
      "9cf": 3325,
      "91a": 3326,
      "smart": 3327,
      "weu": 3328,
      "4098": 3329,
      "63a": 3330,
      "ee8": 3331,
      "57f": 3332,
      "bmw": 3333,
      "9c4": 3334,
      "pan": 3335,
      "men": 3336,
      "17a": 3337,
      "ad0f": 3338,
      "82bb": 3339,
      "vod": 3340,
      "amazon": 3341,
      "298": 3342,
      "e11": 3343,
      "pef": 3344,
      "ca8": 3345,
      "ffa": 3346,
      "47d": 3347,
      "378": 3348,
      "34d": 3349,
      "e3d": 3350,
      "xxx": 3351,
      "8c00": 3352,
      "hpa7zn": 3353,
      "916": 3354,
      "9bd": 3355,
      "9b4": 3356,
      "cce": 3357,
      "accoun": 3358,
      "bfc7": 3359,
      "9505": 3360,
      "e4f4": 3361,
      "173a": 3362,
      "e1d": 3363,
      "lhr": 3364,
      "17a3": 3365,
      "1756": 3366,
      "ac3f": 3367,
      "00f": 3368,
      "try": 3369,
      "476b": 3370,
      "87d3": 3371,
      "8aef": 3372,
      "fe87": 3373,
      "9e98": 3374,
      "269": 3375,
      "ring": 3376,
      "ita": 3377,
      "bb2f": 3378,
      "337d": 3379,
      "ff0b": 3380,
      "478": 3381,
      "6d5b": 3382,
      "8d7": 3383,
      "a7f": 3384,
      "4269": 3385,
      "c26c": 3386,
      "1478": 3387,
      "2bd": 3388,
      "918": 3389,
      "c94": 3390,
      "98cb": 3391,
      "c0a": 3392,
      "348": 3393,
      "northeast": 3394,
      "2b7": 3395,
      "pb": 3396,
      "9075": 3397,
      "8367": 3398,
      "e38": 3399,
      "bcb2": 3400,
      "a58d": 3401,
      "telekom": 3402,
      "c13": 3403,
      "har": 3404,
      "40b9": 3405,
      "b499": 3406,
      "2v": 3407,
      "3y": 3408,
      "9o": 3409,
      "922": 3410,
      "99f": 3411,
      "aust": 3412,
      "cc60": 3413,
      "4fc5": 3414,
      "hoo": 3415,
      "4d98": 3416,
      "abs": 3417,
      "view": 3418,
      "5j": 3419,
      "let": 3420,
      "bfe4": 3421,
      "cc8": 3422,
      "dd98": 3423,
      "89eb": 3424,
      "d425": 3425,
      "simplex": 3426,
      "cd8": 3427,
      "80db": 3428,
      "662": 3429,
      "574": 3430,
      "am2": 3431,
      "e58": 3432,
      "821": 3433,
      "421f": 3434,
      "a91d": 3435,
      "4h": 3436,
      "4m": 3437,
      "6be": 3438,
      "61a": 3439,
      "ref": 3440,
      "tb": 3441,
      "54a": 3442,
      "2fd": 3443,
      "8f3": 3444,
      "4fee": 3445,
      "dsl": 3446,
      "389a": 3447,
      "barrac": 3448,
      "udacentral": 3449,
      "9eba": 3450,
      "barracudacentral": 3451,
      "9bb": 3452,
      "cre": 3453,
      "ist": 3454,
      "corp": 3455,
      "2393": 3456,
      "aaf": 3457,
      "8a3": 3458,
      "4f0": 3459,
      "d02d": 3460,
      "297": 3461,
      "6ce": 3462,
      "919": 3463,
      "c1d": 3464,
      "1510": 3465,
      "93a": 3466,
      "8d4": 3467,
      "42e8": 3468,
      "8e15": 3469,
      "shared": 3470,
      "4g": 3471,
      "4i": 3472,
      "4q": 3473,
      "e22": 3474,
      "b39b": 3475,
      "dd3": 3476,
      "a1b5": 3477,
      "96f": 3478,
      "9e1f": 3479,
      "game": 3480,
      "4c98": 3481,
      "8e9": 3482,
      "b99": 3483,
      "tur": 3484,
      "adcb": 3485,
      "mailer": 3486,
      "489f": 3487,
      "southeast": 3488,
      "science": 3489,
      "e6e": 3490,
      "i0": 3491,
      "da8": 3492,
      "ash": 3493,
      "6550": 3494,
      "950a": 3495,
      "bc5d": 3496,
      "285": 3497,
      "2bf": 3498,
      "9e5": 3499,
      "regi": 3500,
      "ad02": 3501,
      "ba51": 3502,
      "287c": 3503,
      "faa": 3504,
      "4389": 3505,
      "websites": 3506,
      "2u": 3507,
      "2c3": 3508,
      "bri": 3509,
      "stag": 3510,
      "40db": 3511,
      "67b9": 3512,
      "4792": 3513,
      "80a": 3514,
      "50b3": 3515,
      "8a5": 3516,
      "78c3": 3517,
      "dyn": 3518,
      "d9cf": 3519,
      "6b3": 3520,
      "saz": 3521,
      "ich": 3522,
      "458b": 3523,
      "88d": 3524,
      "e8cc": 3525,
      "7ae4": 3526,
      "autodiscover": 3527,
      "s16245": 3528,
      "ener": 3529,
      "458e": 3530,
      "687c": 3531,
      "90b1": 3532,
      "4953": 3533,
      "2ef": 3534,
      "260": 3535,
      "5t": 3536,
      "ies": 3537,
      "ecaf": 3538,
      "1f35": 3539,
      "b70c": 3540,
      "d3f": 3541,
      "uksouth": 3542,
      "dualstack": 3543,
      "iavs9x": 3544,
      "290": 3545,
      "c255": 3546,
      "ily": 3547,
      "22a": 3548,
      "637c": 3549,
      "84a": 3550,
      "df5": 3551,
      "1q": 3552,
      "ae07": 3553,
      "rev": 3554,
      "ach": 3555,
      "ad6a": 3556,
      "proj": 3557,
      "44cd": 3558,
      "aa7": 3559,
      "u2814": 3560,
      "3z": 3561,
      "4n": 3562,
      "4e75": 3563,
      "6i": 3564,
      "966": 3565,
      "12e7": 3566,
      "e4e47": 3567,
      "aa5": 3568,
      "4aff": 3569,
      "4c1e": 3570,
      "19765": 3571,
      "sync": 3572,
      "0s": 3573,
      "oca": 3574,
      "zb": 3575,
      "stra": 3576,
      "ed66": 3577,
      "128e": 3578,
      "45d": 3579,
      "47e8": 3580,
      "37a00": 3581,
      "ath": 3582,
      "83d2": 3583,
      "10535": 3584,
      "ax3": 3585,
      "a308": 3586,
      "7m": 3587,
      "12ed": 3588,
      "80ec": 3589,
      "42946": 3590,
      "d386": 3591,
      "617cb": 3592,
      "azurewebsites": 3593,
      "262": 3594,
      "36e2": 3595,
      "a173": 3596,
      "47120": 3597,
      "c78": 3598,
      "e3a": 3599,
      "999ff": 3600,
      "d013": 3601,
      "ygu": 3602,
      "f65617cb": 3603,
      "d9d2": 3604,
      "a90e": 3605,
      "aa032": 3606,
      "f88e": 3607,
      "tiktok": 3608,
      "7bf18ce": 3609,
      "bd9dea4": 3610,
      "1f20f65617cb": 3611,
      "9315ad0f": 3612,
      "950f00b0": 3613,
      "4fc53575": 3614,
      "37a00bd9dea4": 3615,
      "7bf18ce42946": 3616,
      "4674": 3617,
      "4ce4": 3618,
      "8s": 3619,
      "gef": 3620,
      "ba6ad": 3621,
      "00a": 3622,
      "69a": 3623,
      "2fbda": 3624,
      "8fd": 3625,
      "b6ed3": 3626,
      "16677": 3627,
      "hp57": 3628,
      "9ea2": 3629,
      "495b0": 3630,
      "777aa032": 3631,
      "cbd1": 3632,
      "4409": 3633,
      "435e": 3634,
      "msoid": 3635,
      "complex": 3636,
      "d02d1bc0": 3637,
      "777aa03298cb": 3638,
      "4843": 3639,
      "bae": 3640,
      "9316": 3641,
      "e7a": 3642,
      "575": 3643,
      "works": 3644,
      "internet": 3645,
      "bbafc": 3646,
      "b40f": 3647,
      "8c3c": 3648,
      "d9028": 3649,
      "a53c": 3650,
      "d16c5": 3651,
      "device": 3652,
      "6e17ff0b": 3653,
      "e4e47f32": 3654,
      "6e17ff0b337d": 3655,
      "4ec0": 3656,
      "5a56": 3657,
      "96e": 3658,
      "9be": 3659,
      "9b3": 3660,
      "9c3": 3661,
      "ffd": 3662,
      "logy": 3663,
      "87a": 3664,
      "dfd": 3665,
      "4f02": 3666,
      "af0": 3667,
      "c2c442": 3668,
      "f325": 3669,
      "3ceaac": 3670,
      "2e4": 3671,
      "519765": 3672,
      "7202": 3673,
      "lw": 3674,
      "b5c53f": 3675,
      "e7d07": 3676,
      "8a8": 3677,
      "a70": 3678,
      "f09e98": 3679,
      "haus": 3680,
      "f65da7": 3681,
      "640b499": 3682,
      "b6d640b499": 3683,
      "dbfe7d07": 3684,
      "e141756": 3685,
      "8ca13": 3686,
      "d55bbafc": 3687,
      "58f2fbda": 3688,
      "4ac16677": 3689,
      "i935b0": 3690,
      "77506d5b": 3691,
      "c764e4f4": 3692,
      "77704ac16677": 3693,
      "15e0cc": 3694,
      "1766c2c442": 3695,
      "941d3e": 3696,
      "dd98e6": 3697,
      "d4251fcd": 3698,
      "78c3b4ca": 3699,
      "7ae4b00": 3700,
      "1053511f": 3701,
      "471207ae4b00": 3702,
      "999ff3e2": 3703,
      "495b0ef8": 3704,
      "d9028fc6": 3705,
      "d16c5e141756": 3706,
      "51976515e0cc": 3707,
      "b5c53fdd98e6": 3708,
      "f09e983ceaac": 3709,
      "f65da71b": 3710,
      "b6d640b49991": 3711,
      "d55bbafc0030": 3712,
      "c764e4f41c60": 3713,
      "1766c2c442e7": 3714,
      "cbe": 3715,
      "fer": 3716,
      "fbe": 3717,
      "meet": 3718,
      "2f8": 3719,
      "8f9f": 3720,
      "spamcop": 3721,
      "162443": 3722,
      "63735d": 3723,
      "048b6ed3": 3724,
      "dprodmgd104": 3725,
      "97a0d9d2": 3726,
      "17a38ca13": 3727,
      "941d3e63735d": 3728,
      "17a38ca1335d": 3729,
      "9b7d": 3730,
      "a25c": 3731,
      "aea2": 3732,
      "5431": 3733,
      "44d": 3734,
      "2d8c00": 3735,
      "505": 3736,
      "a5fa3": 3737,
      "c2ee37": 3738,
      "b81657": 3739,
      "ba390": 3740,
      "c882d8c00": 3741,
      "542de": 3742,
      "419e": 3743,
      "analytics": 3744,
      "512b81657": 3745,
      "7b7c882d8c00": 3746,
      "36b542de": 3747,
      "389a8e15": 3748,
      "ba6adcd": 3749,
      "a5fa3ba6adcd": 3750,
      "c2ee3714": 3751,
      "512b81657267": 3752,
      "2c5": 3753,
      "4804": 3754,
      "7944": 3755,
      "745a": 3756,
      "nb": 3757,
      "ea57": 3758,
      "6840": 3759,
      "fast": 3760,
      "b0ce": 3761,
      "eb8": 3762,
      "df3": 3763,
      "une": 3764,
      "bid": 3765,
      "u2810": 3766,
      "fire": 3767,
      "1ee": 3768,
      "4157": 3769,
      "5l": 3770,
      "9cc": 3771,
      "tbeu": 3772,
      "wat": 3773,
      "de708": 3774,
      "632": 3775,
      "83a": 3776,
      "word": 3777,
      "617163d": 3778,
      "b2780": 3779,
      "e1f6": 3780,
      "90aba390": 3781,
      "b096b": 3782,
      "4882": 3783,
      "617163db2780": 3784,
      "912": 3785,
      "992": 3786,
      "9e4": 3787,
      "rex": 3788,
      "mal": 3789,
      "69dd": 3790,
      "3382e7": 3791,
      "b38f9": 3792,
      "046d8": 3793,
      "002c3": 3794,
      "sharepoint": 3795,
      "9ebabaf": 3796,
      "b096b9ebabaf": 3797,
      "046d894f": 3798,
      "cra": 3799,
      "ray": 3800,
      "life": 3801,
      "c41945": 3802,
      "37a": 3803,
      "df4": 3804,
      "a516": 3805,
      "ney": 3806,
      "5a6c": 3807,
      "41a6": 3808,
      "14d7b38f9": 3809,
      "ac3fc41945": 3810,
      "de708b3e": 3811,
      "3382e798": 3812,
      "14d7b38f9647": 3813,
      "ac3fc41945bc": 3814,
      "2cd": 3815,
      "21f": 3816,
      "xb": 3817,
      "ns6": 3818,
      "ad3d": 3819,
      "infor": 3820,
      "ec032": 3821,
      "confer": 3822,
      "77d53": 3823,
      "4p": 3824,
      "498a": 3825,
      "kb": 3826,
      "sca": 3827,
      "9df4": 3828,
      "ee1c0": 3829,
      "vgq": 3830,
      "770b1": 3831,
      "9c788": 3832,
      "ae42": 3833,
      "wildca": 3834,
      "delivery": 3835,
      "3t": 3836,
      "4c2e": 3837,
      "c12": 3838,
      "cbc": 3839,
      "ner": 3840,
      "20e0d0": 3841,
      "ors": 3842,
      "cable": 3843,
      "8715": 3844,
      "direct": 3845,
      "euno": 3846,
      "4f5": 3847,
      "tional": 3848,
      "9e17": 3849,
      "e1cc60": 3850,
      "e3f77d53": 3851,
      "825e1cc60": 3852,
      "custo": 3853,
      "794420e0d0": 3854,
      "002c32fb": 3855,
      "825e1cc6032c": 3856,
      "794420e0d0f8": 3857,
      "rad": 3858,
      "ino": 3859,
      "64e98": 3860,
      "30177": 3861,
      "publish": 3862,
      "akamai": 3863,
      "ac6d637c": 3864,
      "bfe4128e": 3865,
      "bfe4128ebb2f": 3866,
      "n8": 3867,
      "40e6": 3868,
      "94dd": 3869,
      "sis": 3870,
      "83d": 3871,
      "skyp": 3872,
      "155ee1c0": 3873,
      "4d5770b1": 3874,
      "e49ec032": 3875,
      "25c3bfc7": 3876,
      "9075958a": 3877,
      "287c9075958a": 3878,
      "47e818dd": 3879,
      "f3259a69": 3880,
      "5a6c9c788": 3881,
      "155ee1c050b3": 3882,
      "25c3bfc72453": 3883,
      "5a6c9c7881a8": 3884,
      "2ac": 3885,
      "2e0": 3886,
      "r8": 3887,
      "x6": 3888,
      "17a0": 3889,
      "ong": 3890,
      "2f2d3": 3891,
      "spf": 3892,
      "578": 3893,
      "107dff": 3894,
      "961a": 3895,
      "wnrtm": 3896,
      "eacb5": 3897,
      "8bb1": 3898,
      "journals": 3899,
      "trouter2": 3900,
      "contacts": 3901,
      "3w": 3902,
      "4s": 3903,
      "inet": 3904,
      "4f7": 3905,
      "4a33": 3906,
      "ware": 3907,
      "ac0a36": 3908,
      "9ca9": 3909,
      "ed661fc": 3910,
      "d0131478": 3911,
      "64e9866a": 3912,
      "30177ed661fc": 3913,
      "107dffac0a36": 3914,
      "294": 3915,
      "c6c": 3916,
      "light": 3917,
      "a5me": 3918,
      "uxax3": 3919,
      "5072f2d3": 3920,
      "0a0eacb5": 3921,
      "5072f2d367b9": 3922,
      "2ea": 3923,
      "2b5": 3924,
      "b62": 3925,
      "cel": 3926,
      "55f": 3927,
      "43f": 3928,
      "b83e": 3929,
      "3m": 3930,
      "iad": 3931,
      "pix": 3932,
      "tan": 3933,
      "usa": 3934,
      "88a": 3935,
      "dia": 3936,
      "7385": 3937,
      "80765": 3938,
      "268": 3939,
      "28b43": 3940,
      "33a": 3941,
      "4918": 3942,
      "2e7": 3943,
      "zap": 3944,
      "00ac3": 3945,
      "bf80765": 3946,
      "ets": 3947,
      "d0f": 3948,
      "28b431a3": 3949,
      "00ac3bf80765": 3950,
      "295": 3951,
      "mbi": 3952,
      "aa3": 3953,
      "53c8": 3954,
      "wildcard": 3955,
      "460": 3956,
      "router": 3957,
      "47a": 3958,
      "9420": 3959,
      "aprd": 3960,
      "ccww": 3961,
      "99c": 3962,
      "lav": 3963,
      "3du": 3964,
      "feed": 3965,
      "3c27": 3966,
      "3i": 3967,
      "5v": 3968,
      "tings": 3969,
      "504": 3970,
      "df7": 3971,
      "cb2": 3972,
      "sel": 3973,
      "9808": 3974,
      "05ad": 3975,
      "2c4": 3976,
      "2c7": 3977,
      "8370": 3978,
      "ast": 3979,
      "14f8": 3980,
      "check": 3981,
      "gest": 3982,
      "4b8a": 3983,
      "yahoo": 3984,
      "0g": 3985,
      "ide": 3986,
      "lit": 3987,
      "t6": 3988,
      "tag": 3989,
      "libra": 3990,
      "87e5": 3991,
      "e0a": 3992,
      "d7f": 3993,
      "googl": 3994,
      "277": 3995,
      "pin": 3996,
      "fa8": 3997,
      "4fce": 3998,
      "dd7": 3999,
      "21a": 4000,
      "3s": 4001,
      "e62": 4002,
      "liv": 4003,
      "bcec": 4004,
      "af4": 4005,
      "a04": 4006,
      "holes": 4007,
      "umb": 4008,
      "26e": 4009,
      "2c0": 4010,
      "29f": 4011,
      "iles": 4012,
      "ff8": 4013,
      "50f": 4014,
      "vid": 4015,
      "a5f": 4016,
      "d2b6": 4017,
      "96e8": 4018,
      "cry": 4019,
      "45ea": 4020,
      "7dce": 4021,
      "busin": 4022,
      "uxax3vh": 4023,
      "1e8": 4024,
      "2bb": 4025,
      "b89": 4026,
      "vac": 4027,
      "dd5": 4028,
      "4d4": 4029,
      "200f8": 4030,
      "temp": 4031,
      "teasc": 4032,
      "andro": 4033,
      "staging": 4034,
      "2ec": 4035,
      "msn": 4036,
      "mein": 4037,
      "cap": 4038,
      "35a": 4039,
      "vis": 4040,
      "147eee": 4041,
      "fc2393": 4042,
      "7b1f35": 4043,
      "1d0cd": 4044,
      "13d82": 4045,
      "blackholes": 4046,
      "fc2393147eee": 4047,
      "7b1f351a": 4048,
      "2fa": 4049,
      "p8": 4050,
      "eno": 4051,
      "dab9f": 4052,
      "6d6f": 4053,
      "c39ef": 4054,
      "43d": 4055,
      "4f4": 4056,
      "a0f": 4057,
      "4ae1": 4058,
      "7j": 4059,
      "asn": 4060,
      "a58a": 4061,
      "uxax3vhgn": 4062,
      "1b8": 4063,
      "2cf": 4064,
      "9bc": 4065,
      "wac": 4066,
      "rop": 4067,
      "care": 4068,
      "6d55": 4069,
      "e4a": 4070,
      "4d2a": 4071,
      "1c1b": 4072,
      "5f0": 4073,
      "ab12f": 4074,
      "493b": 4075,
      "eur05": 4076,
      "2da": 4077,
      "26f": 4078,
      "6bc": 4079,
      "b6b": 4080,
      "lc": 4081,
      "ota": 4082,
      "add3": 4083,
      "645e": 4084,
      "2f1": 4085,
      "43a5": 4086,
      "chi": 4087,
      "media3": 4088,
      "c1ed": 4089,
      "redir": 4090,
      "780200f8": 4091,
      "15104a4": 4092,
      "ab12f15104a4": 4093,
      "4b0a": 4094,
      "gcp": 4095,
      "aa4": 4096,
      "dscx": 4097,
      "abcf": 4098,
      "173d2": 4099,
      "04ad6a": 4100,
      "medical": 4101,
      "1ca44b": 4102,
      "3c27sn": 4103,
      "13d82c60": 4104,
      "04ad6a1ca44b": 4105,
      "30d": 4106,
      "555": 4107,
      "438": 4108,
      "che": 4109,
      "fe9df4": 4110,
      "wpad": 4111,
      "cc077c": 4112,
      "e4f173d2": 4113,
      "94ddc39ef": 4114,
      "1d0cdbe5": 4115,
      "fe9df4cc077c": 4116,
      "94ddc39efc07": 4117,
      "4e07": 4118,
      "l6n": 4119,
      "4029": 4120,
      "dav": 4121,
      "b01": 4122,
      "aaa": 4123,
      "dd4": 4124,
      "westeuropecns": 4125,
      "8e4c4": 4126,
      "photo": 4127,
      "edataprd": 4128,
      "skypedataprd": 4129,
      "9de": 4130,
      "9225": 4131,
      "spamhaus": 4132,
      "graph": 4133,
      "ab36": 4134,
      "12ed8d8": 4135,
      "7385961a": 4136,
      "dab9f12ed8d8": 4137,
      "a48": 4138,
      "e89": 4139,
      "143f": 4140,
      "278a": 4141,
      "nat": 4142,
      "8212e7": 4143,
      "d38": 4144,
      "d03": 4145,
      "7u": 4146,
      "cms": 4147,
      "flo": 4148,
      "nor": 4149,
      "ool": 4150,
      "ubl": 4151,
      "met": 4152,
      "ros": 4153,
      "act": 4154,
      "mailws": 4155,
      "anel": 4156,
      "a07": 4157,
      "mir": 4158,
      "31b3": 4159,
      "u2807": 4160,
      "ecaf8212e7": 4161,
      "8e4c4851": 4162,
      "ecaf8212e706": 4163,
      "e92": 4164,
      "commun": 4165,
      "455e": 4166,
      "44a": 4167,
      "media5": 4168,
      "16243": 4169,
      "e0866": 4170,
      "sun9": 4171,
      "ire": 4172,
      "lbl": 4173,
      "pen": 4174,
      "code": 4175,
      "6ae8": 4176,
      "virus": 4177,
      "a75": 4178,
      "gprs": 4179,
      "2ba": 4180,
      "21d": 4181,
      "center": 4182,
      "2b0": 4183,
      "yb": 4184,
      "baba": 4185,
      "8f8": 4186,
      "arm": 4187,
      "d860e": 4188,
      "979e0866": 4189,
      "527d860e": 4190,
      "tiktokcdn": 4191,
      "7dce979e0866": 4192,
      "gprswap": 4193,
      "2ad": 4194,
      "2b4": 4195,
      "fas": 4196,
      "gal": 4197,
      "ddd": 4198,
      "facebook": 4199,
      "settings": 4200,
      "engine": 4201,
      "f1414": 4202,
      "9b8": 4203,
      "c82": 4204,
      "plus": 4205,
      "d1bc": 4206,
      "7i": 4207,
      "9ce": 4208,
      "abdf": 4209,
      "292": 4210,
      "4ec2": 4211,
      "92d1f": 4212,
      "57a": 4213,
      "ark": 4214,
      "af7": 4215,
      "3f4": 4216,
      "d7d": 4217,
      "c92": 4218,
      "e99": 4219,
      "lea": 4220,
      "ley": 4221,
      "98056": 4222,
      "72k6ns9a": 4223,
      "9ee": 4224,
      "han": 4225,
      "nop": 4226,
      "ele": 4227,
      "83f3": 4228,
      "virt": 4229,
      "4d49": 4230,
      "4a6f": 4231,
      "7c6550": 4232,
      "state": 4233,
      "change": 4234,
      "8e992d1f": 4235,
      "a58a7c6550": 4236,
      "a58a7c6550d8": 4237,
      "2i": 4238,
      "2ed": 4239,
      "29d": 4240,
      "2e5": 4241,
      "l1": 4242,
      "sams": 4243,
      "admin": 4244,
      "d05": 4245,
      "focus": 4246,
      "tranet": 4247,
      "9ea33": 4248,
      "2ca": 4249,
      "29a": 4250,
      "a45": 4251,
      "ico": 4252,
      "mel": 4253,
      "8d1c1b": 4254,
      "3f5": 4255,
      "ify": 4256,
      "7d5": 4257,
      "aezn": 4258,
      "5uaezn": 4259,
      "42d98056": 4260,
      "8d1c1b91": 4261,
      "42d9805614f8": 4262,
      "3u": 4263,
      "a23": 4264,
      "b11": 4265,
      "hgn": 4266,
      "amres": 4267,
      "53f": 4268,
      "d08": 4269,
      "games": 4270,
      "que": 4271,
      "qk1": 4272,
      "pay": 4273,
      "fmip": 4274,
      "ea578e": 4275,
      "1e2": 4276,
      "6cc": 4277,
      "b1b": 4278,
      "67ea578e": 4279,
      "839d": 4280,
      "af3": 4281,
      "a3d": 4282,
      "e17d1bc": 4283,
      "9ea33e17d1bc": 4284,
      "508": 4285,
      "exit": 4286,
      "3d5": 4287,
      "26a": 4288,
      "vat": 4289,
      "ce48": 4290,
      "spot": 4291,
      "arh": 4292,
      "enter": 4293,
      "d3d": 4294,
      "5w": 4295,
      "national": 4296,
      "exec": 4297,
      "und": 4298,
      "4f3": 4299,
      "162445": 4300,
      "ika": 4301,
      "site": 4302,
      "a5mekn": 4303,
      "library": 4304,
      "96c": 4305,
      "b1c": 4306,
      "ert": 4307,
      "24107": 4308,
      "ord": 4309,
      "elec": 4310,
      "gtm": 4311,
      "2be": 4312,
      "gro": 4313,
      "o6": 4314,
      "dan": 4315,
      "558": 4316,
      "login": 4317,
      "sazsc": 4318,
      "24107363": 4319,
      "1b2": 4320,
      "mcs": 4321,
      "wid": 4322,
      "4445": 4323,
      "34a": 4324,
      "bur": 4325,
      "e6c": 4326,
      "ren": 4327,
      "v0": 4328,
      "82901": 4329,
      "nekn": 4330,
      "2c87e5": 4331,
      "opensocial": 4332,
      "99117a0": 4333,
      "2c87e562": 4334,
      "99117a082901": 4335,
      "6b2": 4336,
      "ureport": 4337,
      "a73": 4338,
      "3f0": 4339,
      "5hnekn": 4340,
      "9682": 4341,
      "android": 4342,
      "2b3": 4343,
      "9e8": 4344,
      "d59": 4345,
      "e82": 4346,
      "dem": 4347,
      "elfak": 4348,
      "538": 4349,
      "customer": 4350,
      "1eb": 4351,
      "mad": 4352,
      "sin": 4353,
      "ono": 4354,
      "cana": 4355,
      "ee87f": 4356,
      "power": 4357,
      "notif": 4358,
      "nsz": 4359,
      "solu": 4360,
      "goo": 4361,
      "ugwq4eyg": 4362,
      "hop": 4363,
      "ences": 4364,
      "design": 4365,
      "ari": 4366,
      "4fd": 4367,
      "d0d": 4368,
      "mx1": 4369,
      "4c25a": 4370,
      "intl": 4371,
      "e6a4c25a": 4372,
      "support": 4373,
      "6d55e6a4c25a": 4374,
      "ee87fcde": 4375,
      "eco": 4376,
      "xmp": 4377,
      "day": 4378,
      "asi": 4379,
      "1d821": 4380,
      "af5": 4381,
      "705": 4382,
      "shi": 4383,
      "3f3": 4384,
      "162444": 4385,
      "globalredir": 4386,
      "ments": 4387,
      "2e91d821": 4388,
      "oln0400": 4389,
      "94206ae8": 4390,
      "ce4894206ae8": 4391,
      "1cb": 4392,
      "26d": 4393,
      "9eb": 4394,
      "pto": 4395,
      "cation": 4396,
      "bdef": 4397,
      "a5d": 4398,
      "ugwq6eyg": 4399,
      "collector": 4400,
      "1bc": 4401,
      "jun": 4402,
      "ping": 4403,
      "internal": 4404,
      "c418": 4405,
      "ator": 4406,
      "30a": 4407,
      "a05": 4408,
      "7f4": 4409,
      "2r": 4410,
      "kan": 4411,
      "8179": 4412,
      "b66": 4413,
      "over": 4414,
      "sfb": 4415,
      "aa8": 4416,
      "75f": 4417,
      "3f7": 4418,
      "2bc": 4419,
      "9cb": 4420,
      "lmt": 4421,
      "p9": 4422,
      "rum": 4423,
      "w0": 4424,
      "who": 4425,
      "tis": 4426,
      "dis": 4427,
      "df8": 4428,
      "oss": 4429,
      "707": 4430,
      "nv47l": 4431,
      "ava": 4432,
      "king": 4433,
      "lap": 4434,
      "cdg": 4435,
      "009": 4436,
      "gaz": 4437,
      "add3d7": 4438,
      "war": 4439,
      "adsl": 4440,
      "max": 4441,
      "b5c1ed": 4442,
      "us2": 4443,
      "73f": 4444,
      "zoomff": 4445,
      "6d6f839d": 4446,
      "b5c1edadd3d7": 4447,
      "2de": 4448,
      "5bf": 4449,
      "avi": 4450,
      "a74": 4451,
      "pos": 4452,
      "northeuropecns": 4453,
      "a14": 4454,
      "neu": 4455,
      "match": 4456,
      "des": 4457,
      "usll": 4458,
      "704": 4459,
      "presence": 4460,
      "2ce": 4461,
      "4w": 4462,
      "9k": 4463,
      "9b2": 4464,
      "q1": 4465,
      "d04": 4466,
      "f07": 4467,
      "f0f": 4468,
      "ridge": 4469,
      "usllpic": 4470,
      "b1e": 4471,
      "pat": 4472,
      "saf": 4473,
      "ado": 4474,
      "748": 4475,
      "5f3": 4476,
      "f03": 4477,
      "zombi": 4478,
      "5r": 4479,
      "rep": 4480,
      "ecs": 4481,
      "006": 4482,
      "ary": 4483,
      "mx2": 4484,
      "clu": 4485,
      "1c2": 4486,
      "ncd": 4487,
      "o0": 4488,
      "pet": 4489,
      "t0": 4490,
      "itor": 4491,
      "55d": 4492,
      "olkn": 4493,
      "value": 4494,
      "9s": 4495,
      "air": 4496,
      "c99": 4497,
      "oe": 4498,
      "t1": 4499,
      "eld": 4500,
      "alk": 4501,
      "msedge": 4502,
      "ifi": 4503,
      "4a8": 4504,
      "stats": 4505,
      "ej1": 4506,
      "canary": 4507,
      "2ee": 4508,
      "c62": 4509,
      "city": 4510,
      "lon": 4511,
      "mmr": 4512,
      "eni": 4513,
      "ind": 4514,
      "a5a": 4515,
      "nomail": 4516,
      "vpn": 4517,
      "resour": 4518,
      "tempus": 4519,
      "962": 4520,
      "bon": 4521,
      "ves": 4522,
      "stan": 4523,
      "access": 4524,
      "90a8": 4525,
      "simp": 4526,
      "50d": 4527,
      "tom": 4528,
      "click": 4529,
      "stomf": 4530,
      "edgekey": 4531,
      "vgqsk": 4532,
      "4v": 4533,
      "911": 4534,
      "9c8": 4535,
      "bre": 4536,
      "u8": 4537,
      "aser": 4538,
      "c5c4": 4539,
      "noserver": 4540,
      "eapps": 4541,
      "noptr": 4542,
      "zombie": 4543,
      "26c": 4544,
      "a15": 4545,
      "een": 4546,
      "osi": 4547,
      "sof": 4548,
      "too": 4549,
      "vgqs": 4550,
      "e6b": 4551,
      "i8": 4552,
      "57d": 4553,
      "af8": 4554,
      "af31": 4555,
      "u2808": 4556,
      "image": 4557,
      "badconf": 4558,
      "ame": 4559,
      "bms": 4560,
      "ksn": 4561,
      "758": 4562,
      "7f7": 4563,
      "trans": 4564,
      "balan": 4565,
      "green": 4566,
      "c11": 4567,
      "d0a": 4568,
      "a3a": 4569,
      "cpanel": 4570,
      "7ln": 4571,
      "sched": 4572,
      "keyvalue": 4573,
      "keyvalueservice": 4574,
      "uce": 4575,
      "sand": 4576,
      "1807": 4577,
      "dex": 4578,
      "best": 4579,
      "am3p": 4580,
      "f5d": 4581,
      "manager": 4582,
      "4j": 4583,
      "b82": 4584,
      "q0": 4585,
      "vent": 4586,
      "edg": 4587,
      "75d": 4588,
      "n4v7": 4589,
      "wordpress": 4590,
      "zil": 4591,
      "nsy": 4592,
      "roy": 4593,
      "53d": 4594,
      "a0d": 4595,
      "4d8": 4596,
      "mtn": 4597,
      "7f5": 4598,
      "mis": 4599,
      "io1": 4600,
      "wr1": 4601,
      "caldav": 4602,
      "5ual": 4603,
      "officeapps": 4604,
      "austin": 4605,
      "9c2": 4606,
      "fes": 4607,
      "r9": 4608,
      "ten": 4609,
      "6393": 4610,
      "44e3": 4611,
      "1d75": 4612,
      "hot": 4613,
      "business": 4614,
      "brs": 4615,
      "lf1": 4616,
      "ule": 4617,
      "dip0": 4618,
      "vivo": 4619,
      "d7f4": 4620,
      "7f3": 4621,
      "nez": 4622,
      "glb": 4623,
      "travel": 4624,
      "ication": 4625,
      "windo": 4626,
      "execute": 4627,
      "oln04009225": 4628,
      "ien": 4629,
      "tfb": 4630,
      "aaaa": 4631,
      "43a": 4632,
      "sho": 4633,
      "thumb": 4634,
      "uck": 4635,
      "eapis": 4636,
      "ereport": 4637,
      "4r": 4638,
      "61c": 4639,
      "vil": 4640,
      "cdx": 4641,
      "aa15": 4642,
      "arena": 4643,
      "d3a": 4644,
      "5f5": 4645,
      "url": 4646,
      "nek": 4647,
      "u2812": 4648,
      "alibaba": 4649,
      "lbl8": 4650,
      "ns7": 4651,
      "55a": 4652,
      "74d": 4653,
      "d7a": 4654,
      "9e2": 4655,
      "c66": 4656,
      "fiz": 4657,
      "uca": 4658,
      "ual": 4659,
      "lia": 4660,
      "703": 4661,
      "ris": 4662,
      "hotel": 4663,
      "5f4": 4664,
      "scri": 4665,
      "googleapis": 4666,
      "5go": 4667,
      "c1b": 4668,
      "wet": 4669,
      "a78": 4670,
      "i5bb": 4671,
      "lj1": 4672,
      "c6b": 4673,
      "msa": 4674,
      "inte": 4675,
      "eat": 4676,
      "daily": 4677,
      "f05": 4678,
      "vs1": 4679,
      "vni": 4680,
      "rgf": 4681,
      "2e8": 4682,
      "avg": 4683,
      "ham": 4684,
      "tps": 4685,
      "urs": 4686,
      "math": 4687,
      "dd8": 4688,
      "a03": 4689,
      "nld": 4690,
      "medic": 4691,
      "fmfmobile": 4692,
      "db8": 4693,
      "e66": 4694,
      "gsp": 4695,
      "12b": 4696,
      "space": 4697,
      "a7d": 4698,
      "70f": 4699,
      "velo": 4700,
      "col108": 4701,
      "abb": 4702,
      "c89": 4703,
      "e1e": 4704,
      "ncc": 4705,
      "ura": 4706,
      "inc": 4707,
      "nsk": 4708,
      "bay": 4709,
      "0004": 4710,
      "ety": 4711,
      "exchange": 4712,
      "f04": 4713,
      "music": 4714,
      "account": 4715,
      "aad": 4716,
      "gtr": 4717,
      "q8": 4718,
      "z1": 4719,
      "nss": 4720,
      "73d": 4721,
      "a08": 4722,
      "nlk": 4723,
      "68f37": 4724,
      "299": 4725,
      "bor": 4726,
      "u1": 4727,
      "sno": 4728,
      "proddm": 4729,
      "d78": 4730,
      "ury": 4731,
      "weather": 4732,
      "61e": 4733,
      "9c9": 4734,
      "esp": 4735,
      "e1c": 4736,
      "mrs": 4737,
      "osl": 4738,
      "w8": 4739,
      "il1": 4740,
      "mail1": 4741,
      "5fd": 4742,
      "pol": 4743,
      "fd4": 4744,
      "phan": 4745,
      "ios": 4746,
      "ications": 4747,
      "2e2": 4748,
      "96b": 4749,
      "cla": 4750,
      "g8": 4751,
      "m0": 4752,
      "nrt": 4753,
      "cos": 4754,
      "real": 4755,
      "zons": 4756,
      "gisa": 4757,
      "perf": 4758,
      "00582": 4759,
      "clinic": 4760,
      "onedrivecluc": 4761,
      "143f68f37": 4762,
      "d5900582": 4763,
      "143f68f37ee9": 4764,
      "060": 4765,
      "9y": 4766,
      "ana": 4767,
      "gall": 4768,
      "r74": 4769,
      "ved": 4770,
      "wit": 4771,
      "insi": 4772,
      "9ab2": 4773,
      "a7a": 4774,
      "a38": 4775,
      "vest": 4776,
      "nlb": 4777,
      "cisco": 4778,
      "pj1": 4779,
      "cache": 4780,
      "techno": 4781,
      "9b9": 4782,
      "fut": 4783,
      "hicloud": 4784,
      "kit": 4785,
      "odn": 4786,
      "adap": 4787,
      "maps": 4788,
      "3fd": 4789,
      "qt1": 4790,
      "project": 4791,
      "2cc": 4792,
      "4u": 4793,
      "61b": 4794,
      "9e9": 4795,
      "s16244": 4796,
      "wik": 4797,
      "ini": 4798,
      "stems": 4799,
      "tfbor": 4800,
      "2eb": 4801,
      "ara": 4802,
      "don": 4803,
      "fir": 4804,
      "k1": 4805,
      "blu": 4806,
      "stem": 4807,
      "dnsbl7": 4808,
      "53a": 4809,
      "c947": 4810,
      "ftp": 4811,
      "plan": 4812,
      "wm1": 4813,
      "5ualdn": 4814,
      "3v": 4815,
      "fca": 4816,
      "j1": 4817,
      "logi": 4818,
      "ight": 4819,
      "free": 4820,
      "ronto": 4821,
      "windows": 4822,
      "cia": 4823,
      "hor": 4824,
      "ssp": 4825,
      "broker": 4826,
      "ronti": 4827,
      "manage": 4828,
      "community": 4829,
      "k8": 4830,
      "vi1": 4831,
      "uster": 4832,
      "c1e": 4833,
      "fronti": 4834,
      "var": 4835,
      "remo": 4836,
      "cas": 4837,
      "3d4": 4838,
      "611": 4839,
      "dea": 4840,
      "bas": 4841,
      "sik": 4842,
      "arget": 4843,
      "idc": 4844,
      "d5a": 4845,
      "emea": 4846,
      "sonic3": 4847,
      "onedriveclub": 4848,
      "e1b": 4849,
      "hat": 4850,
      "jap": 4851,
      "wel": 4852,
      "tri": 4853,
      "ukwe": 4854,
      "glen": 4855,
      "land": 4856,
      "send": 4857,
      "ademi": 4858,
      "b91": 4859,
      "lux": 4860,
      "nic": 4861,
      "n6d": 4862,
      "ome": 4863,
      "seek": 4864,
      "blo": 4865,
      "enet": 4866,
      "ede": 4867,
      "452": 4868,
      "prodbn": 4869,
      "spec": 4870,
      "sol": 4871,
      "desktop": 4872,
      "a8f5": 4873,
      "cws": 4874,
      "gan": 4875,
      "mcd": 4876,
      "nik": 4877,
      "ene": 4878,
      "ile": 4879,
      "she": 4880,
      "f0d": 4881,
      "3dc4a": 4882,
      "nlr": 4883,
      "42f1": 4884,
      "fri": 4885,
      "gar": 4886,
      "ian": 4887,
      "x0": 4888,
      "cfb2f": 4889,
      "50a": 4890,
      "bos": 4891,
      "a58": 4892,
      "3d8": 4893,
      "2003": 4894,
      "qxo": 4895,
      "fimes": 4896,
      "3071807": 4897,
      "skypedataprdcol": 4898,
      "3dc4a579": 4899,
      "3071807cfb2f": 4900,
      "por": 4901,
      "272": 4902,
      "uty": 4903,
      "75a": 4904,
      "house": 4905,
      "rts": 4906,
      "studio": 4907,
      "resources": 4908,
      "fit": 4909,
      "qyg": 4910,
      "v8": 4911,
      "intranet": 4912,
      "402": 4913,
      "att": 4914,
      "upload": 4915,
      "nova": 4916,
      "fd5": 4917,
      "fd8": 4918,
      "iao": 4919,
      "inxserver": 4920,
      "5p": 4921,
      "5d2": 4922,
      "mvp": 4923,
      "u0": 4924,
      "sas": 4925,
      "74a": 4926,
      "u2809": 4927,
      "messa": 4928,
      "dal": 4929,
      "f08": 4930,
      "mini": 4931,
      "beacon": 4932,
      "a43": 4933,
      "mcc": 4934,
      "wus": 4935,
      "ync": 4936,
      "zrn": 4937,
      "672": 4938,
      "ula": 4939,
      "gsv": 4940,
      "refer": 4941,
      "a99c": 4942,
      "f5f": 4943,
      "ime": 4944,
      "kin": 4945,
      "sur": 4946,
      "ils": 4947,
      "tia": 4948,
      "ages": 4949,
      "cluster": 4950,
      "03e37": 4951,
      "igh": 4952,
      "2cc5c4": 4953,
      "hpa7z": 4954,
      "b44b92": 4955,
      "q4fl6": 4956,
      "widget": 4957,
      "balancer": 4958,
      "03e37c4a": 4959,
      "2cc5c4b44b92": 4960,
      "4bae": 4961,
      "h0": 4962,
      "kon": 4963,
      "nas": 4964,
      "ted": 4965,
      "reg": 4966,
      "4009": 4967,
      "demo": 4968,
      "rcn": 4969,
      "ne1": 4970,
      "woo": 4971,
      "solutions": 4972,
      "2b8": 4973,
      "ken": 4974,
      "wan": 4975,
      "sten": 4976,
      "372": 4977,
      "rtb": 4978,
      "f7a": 4979,
      "http": 4980,
      "nklmt": 4981,
      "streams": 4982,
      "1d75a6": 4983,
      "mbb": 4984,
      "merc": 4985,
      "acs": 4986,
      "adns": 4987,
      "serv": 4988,
      "speed": 4989,
      "4f8": 4990,
      "bia": 4991,
      "ifdt": 4992,
      "f3a": 4993,
      "prdstr": 4994,
      "ecfc3f": 4995,
      "949b2": 4996,
      "5bf949b2": 4997,
      "6393648": 4998,
      "ecfc3f1d75a6": 4999,
      "7w": 5000,
      "jem": 5001,
      "y8": 5002,
      "a01": 5003,
      "laz": 5004,
      "database": 5005,
      "qv1": 5006,
      "updates": 5007,
      "3r": 5008,
      "9q": 5009,
      "sor": 5010,
      "eas": 5011,
      "70d": 5012,
      "73a": 5013,
      "bibl": 5014,
      "ot1": 5015,
      "2b2": 5016,
      "gas": 5017,
      "b52": 5018,
      "ano": 5019,
      "instifdt": 5020,
      "pops": 5021,
      "4g5e6nz": 5022,
      "phantom": 5023,
      "dad": 5024,
      "dc3": 5025,
      "hal": 5026,
      "uc3": 5027,
      "unil": 5028,
      "d5d": 5029,
      "vie001": 5030,
      "gallery": 5031,
      "d2a": 5032,
      "fed": 5033,
      "fad": 5034,
      "isi": 5035,
      "pip": 5036,
      "t8": 5037,
      "x1": 5038,
      "rans": 5039,
      "646": 5040,
      "ats": 5041,
      "738": 5042,
      "amazons": 5043,
      "simples": 5044,
      "energy": 5045,
      "266": 5046,
      "cri": 5047,
      "gaf": 5048,
      "spring": 5049,
      "626": 5050,
      "consult": 5051,
      "prdst": 5052,
      "oi1": 5053,
      "p33": 5054,
      "umer": 5055,
      "icdn": 5056,
      "itro": 5057,
      "682": 5058,
      "mx3": 5059,
      "quota": 5060,
      "1e6": 5061,
      "9j": 5062,
      "fix": 5063,
      "mor": 5064,
      "772": 5065,
      "verify": 5066,
      "1drv": 5067,
      "eu1": 5068,
      "3f8": 5069,
      "s162444": 5070,
      "pixel": 5071,
      "365": 5072,
      "vts": 5073,
      "x8": 5074,
      "rest": 5075,
      "acad": 5076,
      "snr": 5077,
      "c02": 5078,
      "a0a": 5079,
      "cloudf": 5080,
      "odle": 5081,
      "tivity": 5082,
      "elecom": 5083,
      "9h": 5084,
      "e96": 5085,
      "jan": 5086,
      "rti": 5087,
      "adc": 5088,
      "689": 5089,
      "array": 5090,
      "vali": 5091,
      "teka": 5092,
      "zoo": 5093,
      "h5q": 5094,
      "logija": 5095,
      "amazonses": 5096,
      "bud": 5097,
      "pac": 5098,
      "s8": 5099,
      "ume": 5100,
      "uc7": 5101,
      "wol": 5102,
      "cook": 5103,
      "ret": 5104,
      "ito": 5105,
      "929": 5106,
      "scout": 5107,
      "bis": 5108,
      "motor": 5109,
      "not": 5110,
      "ucp": 5111,
      "u281": 5112,
      "hon": 5113,
      "iscover": 5114,
      "ra2": 5115,
      "ror": 5116,
      "776": 5117,
      "da2": 5118,
      "dell": 5119,
      "develo": 5120,
      "mtp": 5121,
      "miso": 5122,
      "fox": 5123,
      "pop3": 5124,
      "connec": 5125,
      "samsung": 5126,
      "adaptive": 5127,
      "d22": 5128,
      "lrn": 5129,
      "m8": 5130,
      "off": 5131,
      "wag": 5132,
      "rag": 5133,
      "adobe": 5134,
      "2222": 5135,
      "b32": 5136,
      "ala": 5137,
      "upd": 5138,
      "gos": 5139,
      "leg": 5140,
      "forum": 5141,
      "express": 5142,
      "cph": 5143,
      "fun": 5144,
      "ns5": 5145,
      "6947": 5146,
      "lis": 5147,
      "mail2": 5148,
      "mos": 5149,
      "lyncd": 5150,
      "tracker": 5151,
      "gfs270": 5152,
      "abc": 5153,
      "b96": 5154,
      "d27": 5155,
      "ias": 5156,
      "o1": 5157,
      "ucd": 5158,
      "wal": 5159,
      "raz": 5160,
      "enda": 5161,
      "ingest": 5162,
      "mars": 5163,
      "bbci": 5164,
      "952": 5165,
      "elab": 5166,
      "network": 5167,
      "162447": 5168,
      "instit": 5169,
      "super": 5170,
      "crow": 5171,
      "r741q": 5172,
      "lyncdiscover": 5173,
      "ium": 5174,
      "lix": 5175,
      "972": 5176,
      "msk": 5177,
      "5b8": 5178,
      "ipb": 5179,
      "urity": 5180,
      "7d4": 5181,
      "print": 5182,
      "vk1": 5183,
      "prdstr0": 5184,
      "360": 5185,
      "a17": 5186,
      "dri": 5187,
      "f53": 5188,
      "pf1": 5189,
      "colo": 5190,
      "trader": 5191,
      "consumer": 5192,
      "international": 5193,
      "ocsp": 5194,
      "i0f0": 5195,
      "dro": 5196,
      "h8": 5197,
      "pcor": 5198,
      "rec": 5199,
      "mati": 5200,
      "6eur": 5201,
      "c52": 5202,
      "am6eur": 5203,
      "infinit": 5204,
      "page": 5205,
      "simple": 5206,
      "am6eur05": 5207,
      "hip": 5208,
      "psi": 5209,
      "z8": 5210,
      "radio": 5211,
      "rock": 5212,
      "dns3": 5213,
      "5f8": 5214,
      "ygs": 5215,
      "mys": 5216,
      "qua": 5217,
      "marketing": 5218,
      "n4v7sn": 5219,
      "biblio": 5220,
      "9e6": 5221,
      "c96": 5222,
      "m9": 5223,
      "sty": 5224,
      "us1": 5225,
      "arg": 5226,
      "yguk": 5227,
      "03a": 5228,
      "oln04009": 5229,
      "misovic": 5230,
      "0l": 5231,
      "9b6": 5232,
      "den": 5233,
      "non": 5234,
      "ba2": 5235,
      "935b": 5236,
      "336393648": 5237,
      "nan": 5238,
      "useast": 5239,
      "unic": 5240,
      "ropsten": 5241,
      "4hy": 5242,
      "bic": 5243,
      "ibm": 5244,
      "jreport": 5245,
      "ora": 5246,
      "szn": 5247,
      "v9": 5248,
      "z0": 5249,
      "ns10": 5250,
      "asp": 5251,
      "686": 5252,
      "dragisa": 5253,
      "010": 5254,
      "1s": 5255,
      "a52": 5256,
      "bul": 5257,
      "d2f": 5258,
      "e91": 5259,
      "tre": 5260,
      "ube": 5261,
      "wns": 5262,
      "casa": 5263,
      "692": 5264,
      "699": 5265,
      "652": 5266,
      "lig": 5267,
      "ff2": 5268,
      "bd2": 5269,
      "832": 5270,
      "e32": 5271,
      "p5qs": 5272,
      "5hnedn": 5273,
      "sports": 5274,
      "letter": 5275,
      "dragisamisovic": 5276,
      "d25": 5277,
      "db5": 5278,
      "lor": 5279,
      "rak": 5280,
      "edin": 5281,
      "lik": 5282,
      "pl1": 5283,
      "q4flrn": 5284,
      "weaver": 5285,
      "nv47ln": 5286,
      "conference": 5287,
      "bug": 5288,
      "pla": 5289,
      "ric": 5290,
      "ua1": 5291,
      "xbox": 5292,
      "642": 5293,
      "696": 5294,
      "mailgw": 5295,
      "802": 5296,
      "vier": 5297,
      "rator": 5298,
      "sharepointonline": 5299,
      "5i": 5300,
      "cur": 5301,
      "mc947": 5302,
      "uti": 5303,
      "eri": 5304,
      "nsd": 5305,
      "932": 5306,
      "ca2": 5307,
      "679": 5308,
      "332": 5309,
      "629": 5310,
      "vision": 5311,
      "china": 5312,
      "829": 5313,
      "7fd": 5314,
      "rtmp": 5315,
      "1y": 5316,
      "hack": 5317,
      "vap": 5318,
      "blue": 5319,
      "279": 5320,
      "609": 5321,
      "b72": 5322,
      "else": 5323,
      "rsgsv": 5324,
      "mxa": 5325,
      "f5a": 5326,
      "qui": 5327,
      "vpsn": 5328,
      "unilib": 5329,
      "9c6": 5330,
      "cpe": 5331,
      "mqt": 5332,
      "n2d": 5333,
      "tas": 5334,
      "sanu": 5335,
      "ith": 5336,
      "itch": 5337,
      "e72": 5338,
      "2a2": 5339,
      "uto": 5340,
      "ntp": 5341,
      "f0a": 5342,
      "pg1": 5343,
      "xmpp": 5344,
      "proddm200": 5345,
      "9n": 5346,
      "j0": 5347,
      "mreport": 5348,
      "tbb": 5349,
      "xml": 5350,
      "mex": 5351,
      "sts": 5352,
      "mak": 5353,
      "mate": 5354,
      "bee": 5355,
      "6a2": 5356,
      "346": 5357,
      "ria": 5358,
      "gold": 5359,
      "mgr": 5360,
      "vox": 5361,
      "xyz": 5362,
      "finance": 5363,
      "campaig": 5364,
      "usllpic0": 5365,
      "i0f0s": 5366,
      "1x": 5367,
      "f47": 5368,
      "gam": 5369,
      "jet": 5370,
      "uch": 5371,
      "vas": 5372,
      "vms": 5373,
      "ict": 5374,
      "dial": 5375,
      "dscf": 5376,
      "lax": 5377,
      "lan47": 5378,
      "n7l": 5379,
      "pdns": 5380,
      "bat": 5381,
      "3333": 5382,
      "lib": 5383,
      "low": 5384,
      "942": 5385,
      "opt": 5386,
      "escrow": 5387,
      "a5ml": 5388,
      "mxb": 5389,
      "gage": 5390,
      "vpc": 5391,
      "publishing": 5392,
      "d24": 5393,
      "d35": 5394,
      "f42": 5395,
      "gvt": 5396,
      "p37": 5397,
      "s6n": 5398,
      "wyg": 5399,
      "comm": 5400,
      "ilo": 5401,
      "ccc": 5402,
      "ftl": 5403,
      "clients": 5404,
      "elsevier": 5405,
      "c91": 5406,
      "d18": 5407,
      "f54": 5408,
      "f43": 5409,
      "n1d": 5410,
      "w9": 5411,
      "2021": 5412,
      "acy": 5413,
      "676": 5414,
      "276": 5415,
      "601": 5416,
      "472": 5417,
      "959": 5418,
      "cf2": 5419,
      "am5": 5420,
      "ipv6": 5421,
      "moodle": 5422,
      "kola": 5423,
      "voda": 5424,
      "forex": 5425,
      "clients6": 5426,
      "mkt": 5427,
      "22450": 5428,
      "school": 5429,
      "aigzrn": 5430,
      "vi1eur05": 5431,
      "vpsnitro": 5432,
      "bridge": 5433,
      "dbe": 5434,
      "f52": 5435,
      "g0": 5436,
      "las": 5437,
      "25glen": 5438,
      "itel": 5439,
      "asia": 5440,
      "ska": 5441,
      "nl7": 5442,
      "systems": 5443,
      "dgrid": 5444,
      "website": 5445,
      "insight": 5446,
      "qxoedn": 5447,
      "r741q336393648": 5448,
      "escrowproxy": 5449,
      "aac": 5450,
      "cen": 5451,
      "fic": 5452,
      "ids": 5453,
      "kat": 5454,
      "lat": 5455,
      "pul": 5456,
      "pus": 5457,
      "ucc": 5458,
      "eam": 5459,
      "loj": 5460,
      "r3q": 5461,
      "univer": 5462,
      "francecentralcns": 5463,
      "cww": 5464,
      "gri": 5465,
      "pps": 5466,
      "ad6": 5467,
      "659": 5468,
      "maile": 5469,
      "b42": 5470,
      "9a1f": 5471,
      "alph": 5472,
      "bom": 5473,
      "clk": 5474,
      "162450": 5475,
      "prdapp": 5476,
      "relat": 5477,
      "snnw6": 5478,
      "conferences": 5479,
      "prodbn200": 5480,
      "9r": 5481,
      "a28": 5482,
      "cxbl": 5483,
      "f45": 5484,
      "f11": 5485,
      "lex": 5486,
      "pal": 5487,
      "rent": 5488,
      "uro": 5489,
      "ining": 5490,
      "nsr": 5491,
      "ac2": 5492,
      "779": 5493,
      "6963": 5494,
      "2f2": 5495,
      "666": 5496,
      "e01": 5497,
      "6c6": 5498,
      "gol": 5499,
      "abil": 5500,
      "fish": 5501,
      "partn": 5502,
      "control": 5503,
      "help": 5504,
      "a12": 5505,
      "a34": 5506,
      "bsa": 5507,
      "d33": 5508,
      "nsazsc": 5509,
      "uma": 5510,
      "yccww": 5511,
      "invest": 5512,
      "ns0": 5513,
      "856": 5514,
      "cab": 5515,
      "trk": 5516,
      "c0q": 5517,
      "metrics": 5518,
      "scw": 5519,
      "westeuropec": 5520,
      "westeuropecnsazsc": 5521,
      "463": 5522,
      "a35": 5523,
      "a11": 5524,
      "k0": 5525,
      "kas": 5526,
      "our": 5527,
      "run": 5528,
      "uc2": 5529,
      "259": 5530,
      "be6": 5531,
      "801": 5532,
      "c01": 5533,
      "modem": 5534,
      "la1": 5535,
      "7d8": 5536,
      "mix": 5537,
      "traffic": 5538,
      "0du": 5539,
      "ab5szn": 5540,
      "zoomva": 5541,
      "redirect": 5542,
      "bst": 5543,
      "esa": 5544,
      "j9": 5545,
      "wur": 5546,
      "env": 5547,
      "rea": 5548,
      "ed2": 5549,
      "bb2": 5550,
      "lima": 5551,
      "cell": 5552,
      "636": 5553,
      "302": 5554,
      "ures": 5555,
      "b2b": 5556,
      "mgmt": 5557,
      "07a": 5558,
      "oo1": 5559,
      "teleme": 5560,
      "newsletter": 5561,
      "pap001": 5562,
      "ge7": 5563,
      "ira": 5564,
      "iti": 5565,
      "neb": 5566,
      "tiles": 5567,
      "409": 5568,
      "its": 5569,
      "2d2": 5570,
      "cher": 5571,
      "dscc": 5572,
      "courier2": 5573,
      "ukwestcns": 5574,
      "amazonaws": 5575,
      "clump": 5576,
      "9z": 5577,
      "crl": 5578,
      "d20": 5579,
      "pon": 5580,
      "tata": 5581,
      "y1": 5582,
      "301": 5583,
      "board": 5584,
      "c2r": 5585,
      "big": 5586,
      "7f8": 5587,
      "teh": 5588,
      "defra2": 5589,
      "tracking": 5590,
      "lhr03": 5591,
      "hp57kn": 5592,
      "i935b012b": 5593,
      "virtua": 5594,
      "olkn20": 5595,
      "9t": 5596,
      "dor": 5597,
      "d37": 5598,
      "izz": 5599,
      "nex": 5600,
      "p01": 5601,
      "ucf": 5602,
      "uc5": 5603,
      "stri": 5604,
      "nse": 5605,
      "256": 5606,
      "band": 5607,
      "ori": 5608,
      "cam": 5609,
      "danu": 5610,
      "c42": 5611,
      "far": 5612,
      "6dc": 5613,
      "tek": 5614,
      "old": 5615,
      "dscapi": 5616,
      "tools": 5617,
      "vivozap": 5618,
      "9l": 5619,
      "asa": 5620,
      "a13": 5621,
      "hea": 5622,
      "hreport": 5623,
      "hem": 5624,
      "oid": 5625,
      "wix": 5626,
      "coin": 5627,
      "6a6": 5628,
      "biu": 5629,
      "pr4hy": 5630,
      "education": 5631,
      "sr00": 5632,
      "backup": 5633,
      "crypto": 5634,
      "sandbox": 5635,
      "0p": 5636,
      "ans": 5637,
      "a37": 5638,
      "bqn": 5639,
      "ireport": 5640,
      "wreport": 5641,
      "939": 5642,
      "ce6": 5643,
      "urt": 5644,
      "dc1": 5645,
      "vxl": 5646,
      "smtps": 5647,
      "a16": 5648,
      "fee": 5649,
      "f46": 5650,
      "i935b": 5651,
      "ler": 5652,
      "p35": 5653,
      "p2003": 5654,
      "smo": 5655,
      "yax": 5656,
      "mant": 5657,
      "286": 5658,
      "339": 5659,
      "cept": 5660,
      "352": 5661,
      "beog": 5662,
      "97z": 5663,
      "snl": 5664,
      "dora": 5665,
      "b02": 5666,
      "70a": 5667,
      "urg": 5668,
      "embed": 5669,
      "ptt": 5670,
      "dhcp": 5671,
      "1n": 5672,
      "d50": 5673,
      "hen": 5674,
      "isat": 5675,
      "jin": 5676,
      "pas": 5677,
      "ecl": 5678,
      "promo": 5679,
      "de2": 5680,
      "spa": 5681,
      "wood": 5682,
      "fail7": 5683,
      "buil": 5684,
      "snnrv": 5685,
      "linkedin": 5686,
      "8o": 5687,
      "cin": 5688,
      "d34": 5689,
      "mop": 5690,
      "oba": 5691,
      "pes": 5692,
      "ply": 5693,
      "r53": 5694,
      "slo": 5695,
      "smp": 5696,
      "ern": 5697,
      "rever": 5698,
      "c72": 5699,
      "dscw": 5700,
      "bol": 5701,
      "mio": 5702,
      "162442": 5703,
      "cxbs": 5704,
      "lan42": 5705,
      "sendgrid": 5706,
      "amer": 5707,
      "ding": 5708,
      "l0": 5709,
      "mfa": 5710,
      "rit": 5711,
      "zor": 5712,
      "zreport": 5713,
      "addr": 5714,
      "936": 5715,
      "0067": 5716,
      "deta": 5717,
      "902": 5718,
      "879": 5719,
      "cfg": 5720,
      "309": 5721,
      "arch": 5722,
      "tos": 5723,
      "photos": 5724,
      "frontier": 5725,
      "telemetry": 5726,
      "danuoy": 5727,
      "pr4hy5d2": 5728,
      "d15": 5729,
      "dcd": 5730,
      "emp": 5731,
      "fbd": 5732,
      "f44": 5733,
      "j8": 5734,
      "sug": 5735,
      "svc": 5736,
      "sar": 5737,
      "2020": 5738,
      "acce": 5739,
      "adn": 5740,
      "bb6": 5741,
      "289": 5742,
      "ce9": 5743,
      "eum": 5744,
      "999": 5745,
      "boy": 5746,
      "riot": 5747,
      "geico": 5748,
      "ntfy": 5749,
      "ukso": 5750,
      "hosted": 5751,
      "wire": 5752,
      "cross": 5753,
      "studi": 5754,
      "pravni": 5755,
      "a5mlrn": 5756,
      "modem43": 5757,
      "aed": 5758,
      "a57": 5759,
      "fsk": 5760,
      "s0": 5761,
      "sna": 5762,
      "xs4": 5763,
      "sav": 5764,
      "2012": 5765,
      "reo": 5766,
      "road": 5767,
      "acb": 5768,
      "656": 5769,
      "bdc": 5770,
      "labs": 5771,
      "now": 5772,
      "w2t": 5773,
      "gq1": 5774,
      "hitvb": 5775,
      "crea": 5776,
      "notifications": 5777,
      "ransfer": 5778,
      "345": 5779,
      "abd": 5780,
      "buk": 5781,
      "ewr": 5782,
      "kra": 5783,
      "qreport": 5784,
      "scdn": 5785,
      "uc0": 5786,
      "wis": 5787,
      "xiao": 5788,
      "zik": 5789,
      "nsl": 5790,
      "comune": 5791,
      "989": 5792,
      "602": 5793,
      "eth": 5794,
      "fa2": 5795,
      "8810": 5796,
      "661": 5797,
      "e365": 5798,
      "moo": 5799,
      "05a": 5800,
      "am3pap": 5801,
      "7rn": 5802,
      "aeb": 5803,
      "cit": 5804,
      "dbank": 5805,
      "gig": 5806,
      "ida": 5807,
      "iht": 5808,
      "nis": 5809,
      "tin": 5810,
      "ering": 5811,
      "edc": 5812,
      "may": 5813,
      "onet": 5814,
      "282": 5815,
      "deb": 5816,
      "976": 5817,
      "2a6": 5818,
      "soc": 5819,
      "unity": 5820,
      "326": 5821,
      "mik": 5822,
      "vkvd": 5823,
      "intel": 5824,
      "ugwq6eygt": 5825,
      "akamaiedge": 5826,
      "tbbty": 5827,
      "isatap": 5828,
      "9report": 5829,
      "f37": 5830,
      "jfk": 5831,
      "rreport": 5832,
      "insu": 5833,
      "rod": 5834,
      "cdc": 5835,
      "cee": 5836,
      "359": 5837,
      "842": 5838,
      "532": 5839,
      "46fa": 5840,
      "1b9": 5841,
      "clean": 5842,
      "rck": 5843,
      "vol": 5844,
      "ije": 5845,
      "cxbe": 5846,
      "nx5s": 5847,
      "7yn": 5848,
      "i935bf": 5849,
      "o097z": 5850,
      "campaign": 5851,
      "tataidc": 5852,
      "nx5s7n": 5853,
      "1g": 5854,
      "a20": 5855,
      "d13": 5856,
      "dac": 5857,
      "f48": 5858,
      "jen": 5859,
      "led": 5860,
      "o8": 5861,
      "vit": 5862,
      "safe": 5863,
      "2013": 5864,
      "0001": 5865,
      "459": 5866,
      "lo5": 5867,
      "6d2": 5868,
      "349": 5869,
      "eup": 5870,
      "alicdn": 5871,
      "cho": 5872,
      "lists": 5873,
      "dsm": 5874,
      "ipm": 5875,
      "ph2": 5876,
      "dm6": 5877,
      "ues7": 5878,
      "cach": 5879,
      "entity": 5880,
      "accounts": 5881,
      "cmp": 5882,
      "dsa": 5883,
      "d2d": 5884,
      "f50": 5885,
      "isa": 5886,
      "rule": 5887,
      "tun": 5888,
      "tcl": 5889,
      "546": 5890,
      "lio": 5891,
      "356": 5892,
      "eta": 5893,
      "fae": 5894,
      "876": 5895,
      "usc1c": 5896,
      "882": 5897,
      "889": 5898,
      "elect": 5899,
      "576d": 5900,
      "eu2": 5901,
      "bour": 5902,
      "6c2": 5903,
      "pora": 5904,
      "agro": 5905,
      "sys": 5906,
      "sg01": 5907,
      "pcr": 5908,
      "stretch": 5909,
      "gene": 5910,
      "nam12": 5911,
      "vgqskn": 5912,
      "5goeen": 5913,
      "xiaomi": 5914,
      "364": 5915,
      "9w": 5916,
      "dmp": 5917,
      "gon": 5918,
      "ims": 5919,
      "jiz": 5920,
      "p34": 5921,
      "tle": 5922,
      "metro": 5923,
      "reco": 5924,
      "stic": 5925,
      "magaz": 5926,
      "406": 5927,
      "859": 5928,
      "cd2": 5929,
      "onlin": 5930,
      "itn": 5931,
      "dae": 5932,
      "371": 5933,
      "442": 5934,
      "apr": 5935,
      "servers": 5936,
      "bc6": 5937,
      "dsc": 5938,
      "waz": 5939,
      "dkim": 5940,
      "park": 5941,
      "4g5e6n": 5942,
      "rance": 5943,
      "etoronto": 5944,
      "i5bbb93": 5945,
      "p5qs7n": 5946,
      "but": 5947,
      "d30": 5948,
      "fort": 5949,
      "fly": 5950,
      "l8": 5951,
      "s9": 5952,
      "ense": 5953,
      "982": 5954,
      "xpo": 5955,
      "polj": 5956,
      "kovic": 5957,
      "voy": 5958,
      "ski": 5959,
      "smtp2": 5960,
      "qo2": 5961,
      "calenda": 5962,
      "schen": 5963,
      "snnqck2": 5964,
      "academ": 5965,
      "stretchoid": 5966,
      "c61": 5967,
      "krk": 5968,
      "pea": 5969,
      "rsp": 5970,
      "tweb": 5971,
      "vfp": 5972,
      "blr": 5973,
      "25ge7": 5974,
      "common": 5975,
      "ec6": 5976,
      "931": 5977,
      "691": 5978,
      "681": 5979,
      "ato": 5980,
      "576": 5981,
      "432": 5982,
      "nlm": 5983,
      "qkk": 5984,
      "snnqckyccww": 5985,
      "junis": 5986,
      "cst": 5987,
      "lil": 5988,
      "vhy": 5989,
      "y0": 5990,
      "1000": 5991,
      "reen": 5992,
      "stics": 5993,
      "row": 5994,
      "eae": 5995,
      "6035": 5996,
      "479": 5997,
      "mailc": 5998,
      "bd6": 5999,
      "1a2": 6000,
      "sio": 6001,
      "eel": 6002,
      "341": 6003,
      "849": 6004,
      "arts": 6005,
      "526": 6006,
      "hos": 6007,
      "mobi": 6008,
      "mx01": 6009,
      "qual": 6010,
      "company": 6011,
      "chatw": 6012,
      "9oqs": 6013,
      "normal": 6014,
      "learn": 6015,
      "db8eur05": 6016,
      "management": 6017,
      "6947s6n": 6018,
      "biblioteka": 6019,
      "r3q6947s6n": 6020,
      "r3q6947s6n9oqs": 6021,
      "344": 6022,
      "dcf": 6023,
      "imi": 6024,
      "just": 6025,
      "kaf": 6026,
      "n9": 6027,
      "wall": 6028,
      "mess": 6029,
      "sau": 6030,
      "2016": 6031,
      "stro": 6032,
      "649": 6033,
      "64b": 6034,
      "271": 6035,
      "cha": 6036,
      "shad": 6037,
      "7928": 6038,
      "cks": 6039,
      "qlsn": 6040,
      "avto": 6041,
      "indust": 6042,
      "sorbs": 6043,
      "p200300": 6044,
      "1t": 6045,
      "477": 6046,
      "537": 6047,
      "afa": 6048,
      "d28": 6049,
      "d1d": 6050,
      "eli": 6051,
      "eps": 6052,
      "f16": 6053,
      "iis": 6054,
      "nreport": 6055,
      "u9": 6056,
      "va01": 6057,
      "xreport": 6058,
      "stor": 6059,
      "ba9": 6060,
      "cata": 6061,
      "641": 6062,
      "ffc": 6063,
      "serbia": 6064,
      "doo": 6065,
      "6f2": 6066,
      "ely": 6067,
      "bc2": 6068,
      "rix": 6069,
      "726": 6070,
      "uka": 6071,
      "vey": 6072,
      "p5qlsn": 6073,
      "prima": 6074,
      "defa": 6075,
      "1z": 6076,
      "bing": 6077,
      "fec": 6078,
      "gin": 6079,
      "giz": 6080,
      "kul": 6081,
      "kno": 6082,
      "ole": 6083,
      "wxp": 6084,
      "xch": 6085,
      "erts": 6086,
      "1500": 6087,
      "adx": 6088,
      "eag": 6089,
      "uss": 6090,
      "c32": 6091,
      "dik": 6092,
      "opera": 6093,
      "hol": 6094,
      "moj": 6095,
      "cnsazsc": 6096,
      "rdp": 6097,
      "brow": 6098,
      "uksouthcnsazsc": 6099,
      "1p": 6100,
      "dfa": 6101,
      "f67": 6102,
      "gator": 6103,
      "mxp": 6104,
      "mmx": 6105,
      "sing": 6106,
      "ubb": 6107,
      "xw4": 6108,
      "radi": 6109,
      "icn": 6110,
      "ili": 6111,
      "bau": 6112,
      "ony": 6113,
      "daz": 6114,
      "assi": 6115,
      "bey": 6116,
      "809": 6117,
      "cf6": 6118,
      "spc": 6119,
      "cc2": 6120,
      "ccm": 6121,
      "eb2": 6122,
      "d72": 6123,
      "moz": 6124,
      "law": 6125,
      "team": 6126,
      "interest": 6127,
      "scienti": 6128,
      "hpa7kn7l": 6129,
      "etoro": 6130,
      "mcdlv": 6131,
      "beograd": 6132,
      "bmg": 6133,
      "d10": 6134,
      "gea": 6135,
      "hey": 6136,
      "lds": 6137,
      "mup": 6138,
      "pack": 6139,
      "rch": 6140,
      "vul": 6141,
      "vreport": 6142,
      "wip": 6143,
      "dee": 6144,
      "639": 6145,
      "6344": 6146,
      "476": 6147,
      "871": 6148,
      "c7c": 6149,
      "306": 6150,
      "dfw": 6151,
      "896": 6152,
      "b29": 6153,
      "uks": 6154,
      "f41": 6155,
      "place": 6156,
      "jyp": 6157,
      "hostmaster": 6158,
      "xo31": 6159,
      "lan40": 6160,
      "hpa7kn7s": 6161,
      "collec": 6162,
      "water": 6163,
      "vacy": 6164,
      "mqtt": 6165,
      "relatlima": 6166,
      "calendars": 6167,
      "327": 6168,
      "8g": 6169,
      "d17": 6170,
      "d32": 6171,
      "drt": 6172,
      "f25": 6173,
      "flight": 6174,
      "kap": 6175,
      "kee": 6176,
      "p25": 6177,
      "sko": 6178,
      "icat": 6179,
      "edi": 6180,
      "natu": 6181,
      "b59": 6182,
      "b5c": 6183,
      "b46": 6184,
      "b49": 6185,
      "9f2": 6186,
      "els": 6187,
      "e02": 6188,
      "ami": 6189,
      "552": 6190,
      "alex": 6191,
      "afc": 6192,
      "b26": 6193,
      "eml": 6194,
      "joy": 6195,
      "nl1": 6196,
      "hion": 6197,
      "lan46": 6198,
      "security": 6199,
      "brasil": 6200,
      "avat": 6201,
      "enger": 6202,
      "vgqsrn": 6203,
      "cloudfront": 6204,
      "5aa": 6205,
      "752": 6206,
      "ddf": 6207,
      "d75": 6208,
      "eti": 6209,
      "fdf": 6210,
      "rin": 6211,
      "sum": 6212,
      "tam": 6213,
      "wes": 6214,
      "wog": 6215,
      "zam": 6216,
      "sap": 6217,
      "401": 6218,
      "ba6": 6219,
      "itz": 6220,
      "1f9": 6221,
      "4515": 6222,
      "bf1": 6223,
      "c46": 6224,
      "lov": 6225,
      "806": 6226,
      "b7sn": 6227,
      "us4": 6228,
      "ee2": 6229,
      "weba": 6230,
      "la4": 6231,
      "mig": 6232,
      "ir2": 6233,
      "vxj": 6234,
      "syn": 6235,
      "ihd": 6236,
      "buzz": 6237,
      "xnj": 6238,
      "stage": 6239,
      "2gb7sn": 6240,
      "hpa7kn7d": 6241,
      "ugwq4eygt": 6242,
      "aservic": 6243,
      "h5qzen": 6244,
      "1l": 6245,
      "abf": 6246,
      "cma": 6247,
      "dbb": 6248,
      "fen": 6249,
      "his": 6250,
      "qccww": 6251,
      "seb": 6252,
      "tic": 6253,
      "wif": 6254,
      "ych": 6255,
      "z9": 6256,
      "zus": 6257,
      "ecc": 6258,
      "easy": 6259,
      "bby": 6260,
      "456": 6261,
      "dns4": 6262,
      "909": 6263,
      "cfe": 6264,
      "926": 6265,
      "6f9": 6266,
      "886": 6267,
      "sia": 6268,
      "e42": 6269,
      "bog": 6270,
      "bgw": 6271,
      "ppp": 6272,
      "foo": 6273,
      "hao": 6274,
      "lan44": 6275,
      "eur06": 6276,
      "hpa7kn7e": 6277,
      "vps18": 6278,
      "fireworks": 6279,
      "nature": 6280,
      "wetransfer": 6281,
      "ability": 6282,
      "433": 6283,
      "aba": 6284,
      "isk": 6285,
      "jak": 6286,
      "mid": 6287,
      "ore": 6288,
      "pma": 6289,
      "pinterest": 6290,
      "qbp": 6291,
      "vam": 6292,
      "wsp": 6293,
      "engage": 6294,
      "reme": 6295,
      "24e": 6296,
      "ac6": 6297,
      "ad9": 6298,
      "ase": 6299,
      "cep": 6300,
      "naz": 6301,
      "631": 6302,
      "606": 6303,
      "ults": 6304,
      "906": 6305,
      "lot": 6306,
      "971": 6307,
      "872": 6308,
      "snz": 6309,
      "eb6": 6310,
      "dscr": 6311,
      "boo": 6312,
      "agent": 6313,
      "cxbz": 6314,
      "lan41": 6315,
      "1o19": 6316,
      "campus": 6317,
      "mirror": 6318,
      "pr4hy5d2pr4hy5d2": 6319,
      "427": 6320,
      "4b7": 6321,
      "9p": 6322,
      "alo": 6323,
      "d23": 6324,
      "dvl": 6325,
      "ibi": 6326,
      "p27": 6327,
      "p53": 6328,
      "vor": 6329,
      "vrt": 6330,
      "2018": 6331,
      "eds": 6332,
      "dao": 6333,
      "nar": 6334,
      "449": 6335,
      "b36": 6336,
      "apl": 6337,
      "sions": 6338,
      "34e": 6339,
      "846": 6340,
      "839": 6341,
      "9999": 6342,
      "b2e": 6343,
      "mob": 6344,
      "uke": 6345,
      "mx4": 6346,
      "ssy": 6347,
      "tax": 6348,
      "peop": 6349,
      "nl6": 6350,
      "uzh": 6351,
      "aligtr": 6352,
      "hpa7kn76": 6353,
      "beta": 6354,
      "watch": 6355,
      "zilla": 6356,
      "zoomva134": 6357,
      "423": 6358,
      "4ven": 6359,
      "5a7": 6360,
      "f64": 6361,
      "fb7": 6362,
      "g9": 6363,
      "gee": 6364,
      "irs": 6365,
      "iss": 6366,
      "jon": 6367,
      "jal": 6368,
      "nsa": 6369,
      "p22": 6370,
      "rms": 6371,
      "uap": 6372,
      "uok": 6373,
      "y9": 6374,
      "raf": 6375,
      "sant": 6376,
      "2019": 6377,
      "rog": 6378,
      "edo": 6379,
      "986": 6380,
      "fan": 6381,
      "9a2": 6382,
      "alfa": 6383,
      "char": 6384,
      "bix": 6385,
      "labo": 6386,
      "tons": 6387,
      "vez": 6388,
      "phx": 6389,
      "iot": 6390,
      "grup": 6391,
      "gsl": 6392,
      "person": 6393,
      "db3pap": 6394,
      "books": 6395,
      "fasper": 6396,
      "hgn7rn": 6397,
      "whois": 6398,
      "useast1a": 6399,
      "4vendeta": 6400,
      "8n": 6401,
      "895": 6402,
      "d19": 6403,
      "ful": 6404,
      "f49": 6405,
      "pso": 6406,
      "qcp": 6407,
      "r44": 6408,
      "xsp": 6409,
      "india": 6410,
      "ila": 6411,
      "orn": 6412,
      "cdnt": 6413,
      "281": 6414,
      "bfc": 6415,
      "bfe": 6416,
      "63c": 6417,
      "fab": 6418,
      "1d2": 6419,
      "disp": 6420,
      "e52": 6421,
      "329": 6422,
      "6b9": 6423,
      "nos": 6424,
      "yguj": 6425,
      "voj": 6426,
      "ign": 6427,
      "ions": 6428,
      "gue": 6429,
      "layer": 6430,
      "you": 6431,
      "ab5l6n": 6432,
      "hpa7kn7z": 6433,
      "snnqcks": 6434,
      "5hne6n": 6435,
      "enovo": 6436,
      "electric": 6437,
      "schenker": 6438,
      "messenger": 6439,
      "377": 6440,
      "4b5": 6441,
      "a24": 6442,
      "hun": 6443,
      "iuo": 6444,
      "jec": 6445,
      "pdx": 6446,
      "pages": 6447,
      "waa": 6448,
      "2017": 6449,
      "ed9": 6450,
      "ec1": 6451,
      "ca6": 6452,
      "0016": 6453,
      "331": 6454,
      "33c": 6455,
      "bf9": 6456,
      "951": 6457,
      "37e": 6458,
      "ates": 6459,
      "spb": 6460,
      "ebc": 6461,
      "ebus": 6462,
      "lag": 6463,
      "agen": 6464,
      "vpce": 6465,
      "gi3": 6466,
      "flv": 6467,
      "software": 6468,
      "s2s": 6469,
      "sites": 6470,
      "prijem": 6471,
      "tdum": 6472,
      "pefja": 6473,
      "xo31xo31": 6474,
      "0y": 6475,
      "1k": 6476,
      "4c4": 6477,
      "fbl": 6478,
      "f13": 6479,
      "gnt": 6480,
      "sli": 6481,
      "yun": 6482,
      "efo": 6483,
      "repo": 6484,
      "review": 6485,
      "23c": 6486,
      "ea9": 6487,
      "671": 6488,
      "94c": 6489,
      "379": 6490,
      "c5e": 6491,
      "prod1": 6492,
      "66b": 6493,
      "e39": 6494,
      "unit": 6495,
      "742": 6496,
      "upis": 6497,
      "e2c": 6498,
      "webd": 6499,
      "d216": 6500,
      "f36": 6501,
      "rty": 6502,
      "znes": 6503,
      "flu": 6504,
      "guc3": 6505,
      "v7en": 6506,
      "snnw7": 6507,
      "export": 6508,
      "akamaihd": 6509,
      "sharedstreams": 6510,
      "i935b0129": 6511,
      "c0q7l": 6512,
      "1o19sr00": 6513,
      "5e6": 6514,
      "aef": 6515,
      "ab7": 6516,
      "a6f": 6517,
      "a2a": 6518,
      "d1a": 6519,
      "dnl": 6520,
      "fda": 6521,
      "greport": 6522,
      "i9": 6523,
      "len": 6524,
      "uc4": 6525,
      "uyg": 6526,
      "w73": 6527,
      "wfk": 6528,
      "19c": 6529,
      "1643": 6530,
      "come": 6531,
      "ston": 6532,
      "13c": 6533,
      "rom": 6534,
      "or0": 6535,
      "onmicrosoft": 6536,
      "de6": 6537,
      "mail3": 6538,
      "lo2": 6539,
      "b7c": 6540,
      "cfc": 6541,
      "572": 6542,
      "p42": 6543,
      "836": 6544,
      "cbs": 6545,
      "mtalk": 6546,
      "laun": 6547,
      "ukr": 6548,
      "nol": 6549,
      "miz": 6550,
      "mfkv": 6551,
      "umn": 6552,
      "premi": 6553,
      "guide": 6554,
      "ues5": 6555,
      "fail5": 6556,
      "q7kn": 6557,
      "prdapp01": 6558,
      "browser": 6559,
      "bsn": 6560,
      "drcn": 6561,
      "fco": 6562,
      "fma": 6563,
      "fli": 6564,
      "gul": 6565,
      "gmail": 6566,
      "hik": 6567,
      "k8s": 6568,
      "lam": 6569,
      "lar": 6570,
      "rho": 6571,
      "scc": 6572,
      "vst": 6573,
      "vop": 6574,
      "vho": 6575,
      "rax": 6576,
      "innova": 6577,
      "acdn": 6578,
      "tify": 6579,
      "549": 6580,
      "0005": 6581,
      "dation": 6582,
      "956": 6583,
      "famil": 6584,
      "6d6": 6585,
      "c51": 6586,
      "c76": 6587,
      "cc6": 6588,
      "996": 6589,
      "d01": 6590,
      "mot": 6591,
      "b86": 6592,
      "261": 6593,
      "seo": 6594,
      "micloud": 6595,
      "jpx": 6596,
      "centralus": 6597,
      "ivps": 6598,
      "nam10": 6599,
      "tiktokv": 6600,
      "meeting": 6601,
      "fastly": 6602,
      "thumbna": 6603,
      "valid": 6604,
      "wagbridge": 6605,
      "a87": 6606,
      "a2f": 6607,
      "ation": 6608,
      "bty": 6609,
      "cru": 6610,
      "d12": 6611,
      "dda": 6612,
      "d63": 6613,
      "d47": 6614,
      "dbc": 6615,
      "d43": 6616,
      "fbf": 6617,
      "jst": 6618,
      "kal": 6619,
      "lver": 6620,
      "p16": 6621,
      "two": 6622,
      "vad": 6623,
      "vto": 6624,
      "roo": 6625,
      "ece": 6626,
      "541": 6627,
      "itter": 6628,
      "6d70": 6629,
      "1dc": 6630,
      "apac": 6631,
      "dif": 6632,
      "9d2": 6633,
      "elek": 6634,
      "e36": 6635,
      "826": 6636,
      "gem": 6637,
      "identity": 6638,
      "e29": 6639,
      "wei": 6640,
      "ift": 6641,
      "moto": 6642,
      "mozilla": 6643,
      "tool": 6644,
      "thes": 6645,
      "noq": 6646,
      "rcs": 6647,
      "vaxx": 6648,
      "epc": 6649,
      "ues4": 6650,
      "ltd": 6651,
      "contact": 6652,
      "signal": 6653,
      "mailer0": 6654,
      "block": 6655,
      "aec": 6656,
      "aus": 6657,
      "cif": 6658,
      "fcd": 6659,
      "f35": 6660,
      "grid": 6661,
      "jby": 6662,
      "lad": 6663,
      "lzp": 6664,
      "oft": 6665,
      "obs": 6666,
      "p45": 6667,
      "p55": 6668,
      "una": 6669,
      "ubi": 6670,
      "wth": 6671,
      "x9": 6672,
      "yex": 6673,
      "efe": 6674,
      "inar": 6675,
      "ball": 6676,
      "call": 6677,
      "33e": 6678,
      "de9": 6679,
      "ffe": 6680,
      "loc": 6681,
      "location": 6682,
      "b56": 6683,
      "sne": 6684,
      "1d6": 6685,
      "2aj": 6686,
      "509": 6687,
      "82c": 6688,
      "mpo": 6689,
      "more": 6690,
      "uru": 6691,
      "05d": 6692,
      "iritel": 6693,
      "hai": 6694,
      "i5h": 6695,
      "connectivity": 6696,
      "i5bbb930a": 6697,
      "52f": 6698,
      "745": 6699,
      "830": 6700,
      "a54": 6701,
      "a55": 6702,
      "buck": 6703,
      "crm": 6704,
      "f74": 6705,
      "ging": 6706,
      "h9": 6707,
      "hin": 6708,
      "iam": 6709,
      "k9": 6710,
      "p23": 6711,
      "qro": 6712,
      "rub": 6713,
      "sop": 6714,
      "uop": 6715,
      "vra": 6716,
      "wop": 6717,
      "ward": 6718,
      "23e": 6719,
      "edb": 6720,
      "ac9": 6721,
      "6e9": 6722,
      "orion": 6723,
      "onk": 6724,
      "cae": 6725,
      "be9": 6726,
      "376": 6727,
      "b5fc": 6728,
      "bdb": 6729,
      "6fe": 6730,
      "ane": 6731,
      "ani": 6732,
      "sour": 6733,
      "df2": 6734,
      "e21": 6735,
      "vie1": 6736,
      "system": 6737,
      "earth": 6738,
      "researchgate": 6739,
      "virtual": 6740,
      "avi18": 6741,
      "danuoyi": 6742,
      "816": 6743,
      "a64": 6744,
      "fcc": 6745,
      "gram": 6746,
      "nit": 6747,
      "next": 6748,
      "vmx": 6749,
      "yer": 6750,
      "efc": 6751,
      "say": 6752,
      "sage": 6753,
      "17c": 6754,
      "rey": 6755,
      "14e": 6756,
      "12e": 6757,
      "85c": 6758,
      "times": 6759,
      "on2": 6760,
      "itu": 6761,
      "336": 6762,
      "cf9": 6763,
      "c5c": 6764,
      "sim": 6765,
      "ee6": 6766,
      "9fc": 6767,
      "p46": 6768,
      "alum": 6769,
      "ters": 6770,
      "6cb": 6771,
      "d39": 6772,
      "hou": 6773,
      "ipa": 6774,
      "iper": 6775,
      "la2": 6776,
      "vkz": 6777,
      "vpx": 6778,
      "tlu": 6779,
      "your": 6780,
      "q4flr": 6781,
      "hpa7zn7d": 6782,
      "zoomff198": 6783,
      "remote": 6784,
      "hpa7znsz": 6785,
      "4c7": 6786,
      "5ad": 6787,
      "533": 6788,
      "893": 6789,
      "cle": 6790,
      "grs": 6791,
      "gms": 6792,
      "ido": 6793,
      "jbz": 6794,
      "luc": 6795,
      "msp": 6796,
      "mw2": 6797,
      "tap": 6798,
      "uwq": 6799,
      "wpp": 6800,
      "rack": 6801,
      "stant": 6802,
      "25e": 6803,
      "editor": 6804,
      "cai": 6805,
      "asm": 6806,
      "651": 6807,
      "dez": 6808,
      "cet": 6809,
      "60c": 6810,
      "cch": 6811,
      "bc9": 6812,
      "als": 6813,
      "e5e": 6814,
      "chen": 6815,
      "riq": 6816,
      "ripe": 6817,
      "hoa": 6818,
      "1c9": 6819,
      "tha": 6820,
      "novo": 6821,
      "class": 6822,
      "dyz": 6823,
      "cket": 6824,
      "joh": 6825,
      "mnc": 6826,
      "para": 6827,
      "1905f7": 6828,
      "ncer": 6829,
      "brand": 6830,
      "beauty": 6831,
      "ademy": 6832,
      "cert": 6833,
      "c0d1905f7": 6834,
      "852c0d1905f7": 6835,
      "msgapi": 6836,
      "hp57yn": 6837,
      "zaposl": 6838,
      "enterpri": 6839,
      "576d9a1f": 6840,
      "magazine": 6841,
      "5bb": 6842,
      "aro": 6843,
      "a88": 6844,
      "a2d": 6845,
      "aob": 6846,
      "bme": 6847,
      "git": 6848,
      "hua": 6849,
      "jer": 6850,
      "jad": 6851,
      "jig": 6852,
      "kic": 6853,
      "nen": 6854,
      "p64": 6855,
      "qsp": 6856,
      "qvk": 6857,
      "qdk": 6858,
      "rbi": 6859,
      "ses": 6860,
      "vsp": 6861,
      "wak": 6862,
      "zem": 6863,
      "ef2": 6864,
      "10c": 6865,
      "encia": 6866,
      "story": 6867,
      "academi": 6868,
      "22c": 6869,
      "tio": 6870,
      "ea6": 6871,
      "proper": 6872,
      "0009": 6873,
      "69e": 6874,
      "451": 6875,
      "nano": 6876,
      "mails": 6877,
      "b39": 6878,
      "c36": 6879,
      "6f6": 6880,
      "b4e": 6881,
      "b2c": 6882,
      "d36": 6883,
      "weo": 6884,
      "this": 6885,
      "veh": 6886,
      "162448": 6887,
      "nx57": 6888,
      "merce": 6889,
      "snnr": 6890,
      "e11mailgw": 6891,
      "electr": 6892,
      "default": 6893,
      "zaposleni": 6894,
      "347": 6895,
      "567": 6896,
      "755": 6897,
      "d14": 6898,
      "d54": 6899,
      "dna": 6900,
      "dne": 6901,
      "ebl": 6902,
      "fe7": 6903,
      "f55": 6904,
      "ged": 6905,
      "mbx": 6906,
      "pli": 6907,
      "prs": 6908,
      "tho": 6909,
      "txl": 6910,
      "uef": 6911,
      "yul": 6912,
      "yreport": 6913,
      "raj": 6914,
      "ends": 6915,
      "1965": 6916,
      "stry": 6917,
      "roc": 6918,
      "advan": 6919,
      "commerce": 6920,
      "1f1": 6921,
      "1f2": 6922,
      "beb": 6923,
      "bez": 6924,
      "logs": 6925,
      "941": 6926,
      "cf1": 6927,
      "6f70": 6928,
      "9a9": 6929,
      "9f9": 6930,
      "dfc": 6931,
      "ship": 6932,
      "scx": 6933,
      "tak": 6934,
      "rtc": 6935,
      "kot": 6936,
      "bkk": 6937,
      "training": 6938,
      "fxtrade": 6939,
      "ccf3": 6940,
      "standa": 6941,
      "gallerycdn": 6942,
      "matika": 6943,
      "075": 6944,
      "01b": 6945,
      "1report": 6946,
      "36d": 6947,
      "480": 6948,
      "8q": 6949,
      "a80": 6950,
      "ago": 6951,
      "bml": 6952,
      "d45": 6953,
      "dun": 6954,
      "fcf": 6955,
      "fbc": 6956,
      "f51": 6957,
      "gel": 6958,
      "hall": 6959,
      "iop": 6960,
      "jam": 6961,
      "kcl": 6962,
      "lub": 6963,
      "p20": 6964,
      "p10": 6965,
      "p54": 6966,
      "sla": 6967,
      "tls": 6968,
      "uis": 6969,
      "w27": 6970,
      "wbc": 6971,
      "wwl": 6972,
      "wuk": 6973,
      "zim": 6974,
      "19b": 6975,
      "rok": 6976,
      "root": 6977,
      "771": 6978,
      "93e": 6979,
      "card": 6980,
      "da6": 6981,
      "28c": 6982,
      "67c": 6983,
      "67e": 6984,
      "lock": 6985,
      "6d9": 6986,
      "c56": 6987,
      "c59": 6988,
      "881": 6989,
      "2fe": 6990,
      "9d9": 6991,
      "p43": 6992,
      "62e": 6993,
      "8a9": 6994,
      "dfe": 6995,
      "alt": 6996,
      "viv": 6997,
      "viber": 6998,
      "e5c": 6999,
      "last": 7000,
      "udm": 7001,
      "ygh": 7002,
      "www2": 7003,
      "jay": 7004,
      "ders": 7005,
      "frontend": 7006,
      "select": 7007,
      "mcsv": 7008,
      "r741q336393648s2": 7009,
      "insurance": 7010,
      "academic": 7011,
      "catalog": 7012,
      "people": 7013,
      "437": 7014,
      "4aa": 7015,
      "8k": 7016,
      "8z": 7017,
      "818": 7018,
      "a69": 7019,
      "d6a": 7020,
      "equ": 7021,
      "fea": 7022,
      "f33": 7023,
      "ia5": 7024,
      "jaz": 7025,
      "mbl": 7026,
      "pfp": 7027,
      "p52": 7028,
      "p26": 7029,
      "q9": 7030,
      "rls": 7031,
      "vno": 7032,
      "waf": 7033,
      "wbz": 7034,
      "zer": 7035,
      "meo": 7036,
      "24c": 7037,
      "das": 7038,
      "be1": 7039,
      "446": 7040,
      "c39": 7041,
      "apj": 7042,
      "2d6": 7043,
      "621": 7044,
      "via": 7045,
      "boot": 7046,
      "6cg": 7047,
      "bik": 7048,
      "cb6": 7049,
      "mov": 7050,
      "b8c": 7051,
      "polic": 7052,
      "2600": 7053,
      "hty": 7054,
      "vkh": 7055,
      "qxo7": 7056,
      "conv": 7057,
      "kyo": 7058,
      "ues3": 7059,
      "h5q7kn": 7060,
      "snnqckk": 7061,
      "nam11": 7062,
      "player": 7063,
      "aligtr0": 7064,
      "483": 7065,
      "737": 7066,
      "7c7": 7067,
      "a67": 7068,
      "a3f": 7069,
      "gfo": 7070,
      "i25": 7071,
      "icon": 7072,
      "kre": 7073,
      "kgo": 7074,
      "lenovo": 7075,
      "mls": 7076,
      "p36": 7077,
      "ub3": 7078,
      "upu": 7079,
      "uug": 7080,
      "vda": 7081,
      "vcs": 7082,
      "wri": 7083,
      "yan": 7084,
      "mek": 7085,
      "2010": 7086,
      "18c": 7087,
      "2305": 7088,
      "adserver": 7089,
      "mav": 7090,
      "ilability": 7091,
      "22e": 7092,
      "bab": 7093,
      "tim": 7094,
      "33b": 7095,
      "95c": 7096,
      "beo": 7097,
      "los": 7098,
      "lo5z": 7099,
      "bd9": 7100,
      "b0e": 7101,
      "c3e": 7102,
      "1ae": 7103,
      "2f6": 7104,
      "2d9": 7105,
      "spl": 7106,
      "501": 7107,
      "66c": 7108,
      "ipz": 7109,
      "kos": 7110,
      "videos": 7111,
      "marks": 7112,
      "nner": 7113,
      "5hned": 7114,
      "masfak": 7115,
      "centar": 7116,
      "xazz": 7117,
      "9gv7en": 7118,
      "future": 7119,
      "oln04009207": 7120,
      "4ef": 7121,
      "764": 7122,
      "837": 7123,
      "897": 7124,
      "a22": 7125,
      "ars": 7126,
      "aol": 7127,
      "breport": 7128,
      "d6e": 7129,
      "d11": 7130,
      "dhl": 7131,
      "ever": 7132,
      "ego": 7133,
      "guy": 7134,
      "huy": 7135,
      "hdk": 7136,
      "ibl": 7137,
      "jil": 7138,
      "jrk": 7139,
      "la3": 7140,
      "nce": 7141,
      "nbc": 7142,
      "ning": 7143,
      "p50": 7144,
      "qvq": 7145,
      "qcq": 7146,
      "rrs": 7147,
      "sgp": 7148,
      "treport": 7149,
      "ubd": 7150,
      "ucb": 7151,
      "wme": 7152,
      "wiz": 7153,
      "wby": 7154,
      "2014": 7155,
      "2000": 7156,
      "erp": 7157,
      "cak": 7158,
      "bb9": 7159,
      "bbb": 7160,
      "c49": 7161,
      "63b": 7162,
      "wck": 7163,
      "loy": 7164,
      "b76": 7165,
      "9293": 7166,
      "e7b": 7167,
      "diag": 7168,
      "2fc": 7169,
      "spi": 7170,
      "ances": 7171,
      "e46": 7172,
      "62c": 7173,
      "529": 7174,
      "b2hq": 7175,
      "a02": 7176,
      "total": 7177,
      "kov": 7178,
      "ix7": 7179,
      "joo": 7180,
      "query": 7181,
      "wmj": 7182,
      "wmz": 7183,
      "grade": 7184,
      "mber": 7185,
      "privacy": 7186,
      "aigl6n": 7187,
      "hpa7zned": 7188,
      "oversea": 7189,
      "availability": 7190,
      "hackath": 7191,
      "reverse": 7192,
      "qxo7rn": 7193,
      "093": 7194,
      "4c3": 7195,
      "523": 7196,
      "564": 7197,
      "6report": 7198,
      "757": 7199,
      "817": 7200,
      "a98": 7201,
      "a97": 7202,
      "bsp": 7203,
      "dc7": 7204,
      "d53": 7205,
      "dmi": 7206,
      "fbb": 7207,
      "fce": 7208,
      "fb5": 7209,
      "fdd": 7210,
      "fgy": 7211,
      "hyg": 7212,
      "hqy": 7213,
      "jbs": 7214,
      "kir": 7215,
      "lec": 7216,
      "mjx": 7217,
      "p24": 7218,
      "p44": 7219,
      "uet": 7220,
      "wuz": 7221,
      "zit": 7222,
      "zel": 7223,
      "metal": 7224,
      "sam": 7225,
      "sales": 7226,
      "16e": 7227,
      "1870": 7228,
      "tik": 7229,
      "5493": 7230,
      "eaq": 7231,
      "cd9": 7232,
      "ca1": 7233,
      "lion": 7234,
      "fa6": 7235,
      "fa9": 7236,
      "b5e": 7237,
      "1d9": 7238,
      "apo": 7239,
      "c06": 7240,
      "9d6": 7241,
      "502": 7242,
      "841": 7243,
      "e0e": 7244,
      "ws4": 7245,
      "a7e": 7246,
      "rio": 7247,
      "bir": 7248,
      "mons": 7249,
      "media4": 7250,
      "lep": 7251,
      "386": 7252,
      "qu3": 7253,
      "2e14": 7254,
      "qk3": 7255,
      "servicebus": 7256,
      "nyc": 7257,
      "nginx": 7258,
      "audio": 7259,
      "prime": 7260,
      "andre": 7261,
      "physik": 7262,
      "skypedataprdco": 7263,
      "hpa7zns6": 7264,
      "developer": 7265,
      "or0hi": 7266,
      "367": 7267,
      "3e4": 7268,
      "447": 7269,
      "5df": 7270,
      "813": 7271,
      "898": 7272,
      "db4": 7273,
      "fus": 7274,
      "f57": 7275,
      "fmu": 7276,
      "gns": 7277,
      "ggz": 7278,
      "hsp": 7279,
      "hag": 7280,
      "mgo": 7281,
      "mjy": 7282,
      "ovi": 7283,
      "ods": 7284,
      "pil": 7285,
      "target": 7286,
      "uak": 7287,
      "vp4": 7288,
      "vbs": 7289,
      "wsa": 7290,
      "wmp": 7291,
      "rap": 7292,
      "2015": 7293,
      "icl": 7294,
      "ec9": 7295,
      "77e": 7296,
      "64c": 7297,
      "trip": 7298,
      "limit": 7299,
      "90c": 7300,
      "90e": 7301,
      "loca": 7302,
      "b06": 7303,
      "e76": 7304,
      "c09": 7305,
      "disco": 7306,
      "riv": 7307,
      "upport": 7308,
      "3f1": 7309,
      "cb9": 7310,
      "move": 7311,
      "pocz": 7312,
      "oko": 7313,
      "isj": 7314,
      "wxn": 7315,
      "qos": 7316,
      "rubi": 7317,
      "nz7": 7318,
      "bran": 7319,
      "monitor": 7320,
      "station": 7321,
      "snnqisi": 7322,
      "anycast": 7323,
      "engineering": 7324,
      "mysql": 7325,
      "snnqisixazz": 7326,
      "0h": 7327,
      "0z": 7328,
      "454": 7329,
      "894": 7330,
      "9m": 7331,
      "a32": 7332,
      "cil": 7333,
      "dic": 7334,
      "d67": 7335,
      "f24": 7336,
      "fba": 7337,
      "hps": 7338,
      "hig": 7339,
      "jor": 7340,
      "jpp": 7341,
      "jrt": 7342,
      "jgh": 7343,
      "kor": 7344,
      "ling": 7345,
      "nvm": 7346,
      "pad": 7347,
      "pds": 7348,
      "qdn": 7349,
      "uep": 7350,
      "vv4": 7351,
      "vvx": 7352,
      "wst": 7353,
      "yti": 7354,
      "resp": 7355,
      "1837": 7356,
      "12c": 7357,
      "ba1": 7358,
      "proved": 7359,
      "cancer": 7360,
      "trx": 7361,
      "65c": 7362,
      "logg": 7363,
      "fpy": 7364,
      "euc": 7365,
      "dscj": 7366,
      "739": 7367,
      "c2b": 7368,
      "upx": 7369,
      "6b6": 7370,
      "e2e": 7371,
      "media18": 7372,
      "media28": 7373,
      "media52": 7374,
      "screen": 7375,
      "tain": 7376,
      "phil": 7377,
      "162440": 7378,
      "hpj": 7379,
      "vkt": 7380,
      "bnz": 7381,
      "wpz": 7382,
      "dm1": 7383,
      "clienttons": 7384,
      "appdl": 7385,
      "instances": 7386,
      "fiber": 7387,
      "pharma": 7388,
      "dradis": 7389,
      "origin6": 7390,
      "hpa7zn76": 7391,
      "accele": 7392,
      "ivps9x": 7393,
      "1r": 7394,
      "1v": 7395,
      "323": 7396,
      "8h": 7397,
      "840": 7398,
      "a94": 7399,
      "cio": 7400,
      "d4a": 7401,
      "fsa": 7402,
      "f73": 7403,
      "gcd": 7404,
      "hc4": 7405,
      "high": 7406,
      "iws": 7407,
      "l11": 7408,
      "mst": 7409,
      "nad": 7410,
      "nica": 7411,
      "qsh": 7412,
      "qps": 7413,
      "sfc": 7414,
      "sem": 7415,
      "uat": 7416,
      "vur": 7417,
      "vxy": 7418,
      "vdp": 7419,
      "w53": 7420,
      "wfc": 7421,
      "zrh": 7422,
      "ras": 7423,
      "cours": 7424,
      "17b": 7425,
      "ache": 7426,
      "85e": 7427,
      "6e6": 7428,
      "cdb": 7429,
      "cdns": 7430,
      "ask": 7431,
      "65e": 7432,
      "63e": 7433,
      "97c": 7434,
      "snow": 7435,
      "44e": 7436,
      "ap3": 7437,
      "b4c": 7438,
      "62b": 7439,
      "puj": 7440,
      "uninet": 7441,
      "dd2": 7442,
      "body": 7443,
      "media0": 7444,
      "media56": 7445,
      "a31": 7446,
      "cdn2": 7447,
      "media21": 7448,
      "1b6": 7449,
      "ubj": 7450,
      "udc": 7451,
      "scij": 7452,
      "xxs": 7453,
      "akademi": 7454,
      "vyh": 7455,
      "f2xs4": 7456,
      "qyk": 7457,
      "e119": 7458,
      "wzl": 7459,
      "mrj": 7460,
      "bounces": 7461,
      "btx": 7462,
      "results": 7463,
      "dscape": 7464,
      "centre": 7465,
      "xboxlive": 7466,
      "elektro": 7467,
      "poczta": 7468,
      "819": 7469,
      "885": 7470,
      "869": 7471,
      "8report": 7472,
      "91df": 7473,
      "a1a": 7474,
      "a8a": 7475,
      "ae5": 7476,
      "bun": 7477,
      "buc": 7478,
      "cti": 7479,
      "d94": 7480,
      "eus": 7481,
      "fc3": 7482,
      "gil": 7483,
      "gis": 7484,
      "iap": 7485,
      "i4f": 7486,
      "jac": 7487,
      "k48": 7488,
      "luk": 7489,
      "mbg": 7490,
      "nba": 7491,
      "oli": 7492,
      "pgn": 7493,
      "qiy": 7494,
      "qfx": 7495,
      "tso": 7496,
      "twi": 7497,
      "vhost": 7498,
      "wtr": 7499,
      "wwc": 7500,
      "well": 7501,
      "xsl": 7502,
      "mey": 7503,
      "cot": 7504,
      "coy": 7505,
      "st1": 7506,
      "15c": 7507,
      "ed6": 7508,
      "cdp": 7509,
      "cey": 7510,
      "ce12": 7511,
      "68c": 7512,
      "mail7": 7513,
      "11c": 7514,
      "bdo": 7515,
      "b7e": 7516,
      "usu": 7517,
      "usy": 7518,
      "sng": 7519,
      "snn6": 7520,
      "door": 7521,
      "6a9": 7522,
      "c3c": 7523,
      "6fy": 7524,
      "atm": 7525,
      "e79": 7526,
      "ees": 7527,
      "spru": 7528,
      "8d2": 7529,
      "unifi": 7530,
      "e59": 7531,
      "c26": 7532,
      "mtk": 7533,
      "961": 7534,
      "media2": 7535,
      "media32": 7536,
      "c8c": 7537,
      "sct": 7538,
      "mxs": 7539,
      "xyx": 7540,
      "status": 7541,
      "bn8": 7542,
      "appex": 7543,
      "syd": 7544,
      "priv": 7545,
      "bookmarks": 7546,
      "resolver": 7547,
      "signs": 7548,
      "bid46": 7549,
      "technology": 7550,
      "partner": 7551,
      "ihtm": 7552,
      "thumbnails": 7553,
      "rubicon": 7554,
      "317": 7555,
      "3cd": 7556,
      "3dd": 7557,
      "593": 7558,
      "723": 7559,
      "7c4": 7560,
      "864": 7561,
      "847": 7562,
      "a77": 7563,
      "a9f": 7564,
      "ae0": 7565,
      "fst": 7566,
      "fde": 7567,
      "hdo": 7568,
      "jms": 7569,
      "jug": 7570,
      "jpr": 7571,
      "kri": 7572,
      "lite": 7573,
      "muz": 7574,
      "ned": 7575,
      "nes": 7576,
      "p13": 7577,
      "ped": 7578,
      "p30": 7579,
      "pch": 7580,
      "rdi": 7581,
      "uc8": 7582,
      "umx": 7583,
      "vyg": 7584,
      "vmk": 7585,
      "wok": 7586,
      "wot": 7587,
      "wbj": 7588,
      "xus": 7589,
      "zar": 7590,
      "zedat": 7591,
      "sale": 7592,
      "1400": 7593,
      "std": 7594,
      "start": 7595,
      "in2": 7596,
      "inv": 7597,
      "rout": 7598,
      "icp": 7599,
      "acti": 7600,
      "acion": 7601,
      "cd6": 7602,
      "prof": 7603,
      "cafe": 7604,
      "nav": 7605,
      "981": 7606,
      "ff9": 7607,
      "b79": 7608,
      "dol": 7609,
      "b3c": 7610,
      "b3d0": 7611,
      "6fh": 7612,
      "sid": 7613,
      "eln": 7614,
      "e06": 7615,
      "aa2": 7616,
      "8f2": 7617,
      "uno": 7618,
      "chin": 7619,
      "wl0": 7620,
      "wlz": 7621,
      "4dyp": 7622,
      "iph": 7623,
      "media35": 7624,
      "lare": 7625,
      "26u": 7626,
      "d5o": 7627,
      "xyy": 7628,
      "stock": 7629,
      "ijx": 7630,
      "vka": 7631,
      "vmware": 7632,
      "facul": 7633,
      "intercept": 7634,
      "switch": 7635,
      "dscg2": 7636,
      "tps20": 7637,
      "japan": 7638,
      "consulting": 7639,
      "snnrvbic": 7640,
      "flightproxy": 7641,
      "standard": 7642,
      "0x": 7643,
      "3b7": 7644,
      "464": 7645,
      "445": 7646,
      "540": 7647,
      "8y": 7648,
      "834": 7649,
      "aea": 7650,
      "abe": 7651,
      "aee": 7652,
      "bqk": 7653,
      "cir": 7654,
      "d87": 7655,
      "d44": 7656,
      "dcc": 7657,
      "f40": 7658,
      "f68": 7659,
      "gmt": 7660,
      "hro": 7661,
      "iri": 7662,
      "ncl": 7663,
      "pel": 7664,
      "rich": 7665,
      "sso": 7666,
      "sds": 7667,
      "tul": 7668,
      "uit": 7669,
      "zgl": 7670,
      "mem": 7671,
      "20e": 7672,
      "1323": 7673,
      "icz": 7674,
      "itr": 7675,
      "bbx": 7676,
      "bfff": 7677,
      "navi": 7678,
      "921": 7679,
      "6al": 7680,
      "c7b": 7681,
      "fpu": 7682,
      "2f9": 7683,
      "side": 7684,
      "2a9": 7685,
      "436": 7686,
      "rij": 7687,
      "c21": 7688,
      "c29": 7689,
      "networks": 7690,
      "486": 7691,
      "mod": 7692,
      "media9": 7693,
      "media19": 7694,
      "media44": 7695,
      "poly": 7696,
      "theb": 7697,
      "mgt": 7698,
      "jobs": 7699,
      "hnp": 7700,
      "znr": 7701,
      "jlx": 7702,
      "w3p": 7703,
      "tt1": 7704,
      "pkg": 7705,
      "twitter": 7706,
      "blackcat": 7707,
      "gfs262": 7708,
      "fashion": 7709,
      "siteintercept": 7710,
      "scout24": 7711,
      "pcor001": 7712,
      "style": 7713,
      "unityads": 7714,
      "0i": 7715,
      "36e": 7716,
      "3b5": 7717,
      "4ed": 7718,
      "788": 7719,
      "877": 7720,
      "887": 7721,
      "a25": 7722,
      "ab4": 7723,
      "abo": 7724,
      "bvg": 7725,
      "cnt": 7726,
      "d4d": 7727,
      "ew1": 7728,
      "fel": 7729,
      "gad": 7730,
      "gstatic": 7731,
      "ngx": 7732,
      "ppo": 7733,
      "udi": 7734,
      "wra": 7735,
      "w72": 7736,
      "wrn": 7737,
      "wdn": 7738,
      "wuh": 7739,
      "yout": 7740,
      "rah": 7741,
      "rapi": 7742,
      "17e": 7743,
      "1737": 7744,
      "rem": 7745,
      "24b": 7746,
      "1393": 7747,
      "1300": 7748,
      "1383": 7749,
      "bak": 7750,
      "tix": 7751,
      "orl": 7752,
      "on6": 7753,
      "95e": 7754,
      "fal": 7755,
      "love": 7756,
      "b51": 7757,
      "b0c": 7758,
      "57k": 7759,
      "cc9": 7760,
      "boln": 7761,
      "74e": 7762,
      "709": 7763,
      "b2k": 7764,
      "media1": 7765,
      "media34": 7766,
      "toy": 7767,
      "7f6": 7768,
      "ise": 7769,
      "akadns": 7770,
      "vsg": 7771,
      "wpt": 7772,
      "hkg": 7773,
      "smtp1": 7774,
      "s2p": 7775,
      "mont": 7776,
      "colle": 7777,
      "gress": 7778,
      "eastus2": 7779,
      "region": 7780,
      "capital": 7781,
      "notification": 7782,
      "sheets": 7783,
      "tbbtyr": 7784,
      "record": 7785,
      "kafka": 7786,
      "avatar": 7787,
      "015": 7788,
      "3a7": 7789,
      "4bb": 7790,
      "4b4": 7791,
      "577": 7792,
      "760": 7793,
      "753": 7794,
      "7e5": 7795,
      "833": 7796,
      "845": 7797,
      "865": 7798,
      "827": 7799,
      "a93": 7800,
      "a60": 7801,
      "cip": 7802,
      "d77": 7803,
      "d8f": 7804,
      "eport": 7805,
      "fso": 7806,
      "fe3": 7807,
      "gor": 7808,
      "gres": 7809,
      "hid": 7810,
      "iro": 7811,
      "jwl": 7812,
      "jdx": 7813,
      "kasi": 7814,
      "mjq": 7815,
      "pns": 7816,
      "p63": 7817,
      "p57": 7818,
      "p31": 7819,
      "qco": 7820,
      "qmf": 7821,
      "rps": 7822,
      "u33": 7823,
      "uol": 7824,
      "wna": 7825,
      "wux": 7826,
      "wgt": 7827,
      "ef6": 7828,
      "1095": 7829,
      "ree": 7830,
      "stl": 7831,
      "stop": 7832,
      "nsx": 7833,
      "edit": 7834,
      "mao": 7835,
      "8545": 7836,
      "ecel": 7837,
      "ti3": 7838,
      "93c": 7839,
      "27e": 7840,
      "68e": 7841,
      "47c": 7842,
      "87c": 7843,
      "sn1": 7844,
      "6fb": 7845,
      "uts": 7846,
      "8dc": 7847,
      "unt": 7848,
      "mol": 7849,
      "media66": 7850,
      "media57": 7851,
      "media55": 7852,
      "pot": 7853,
      "posi": 7854,
      "myx": 7855,
      "php": 7856,
      "ftx": 7857,
      "csm": 7858,
      "jos": 7859,
      "imk": 7860,
      "lan45": 7861,
      "ebay": 7862,
      "q4fl6n": 7863,
      "subscri": 7864,
      "backend": 7865,
      "dscg1": 7866,
      "hpa7zne6": 7867,
      "avast": 7868,
      "dailymail": 7869,
      "first": 7870,
      "springer": 7871,
      "prijemni": 7872,
      "bucket": 7873,
      "354": 7874,
      "368": 7875,
      "490": 7876,
      "510": 7877,
      "554": 7878,
      "6tt": 7879,
      "7ec": 7880,
      "823": 7881,
      "867": 7882,
      "8bf": 7883,
      "868": 7884,
      "a40": 7885,
      "aug": 7886,
      "cwk": 7887,
      "drs": 7888,
      "dc2": 7889,
      "d1e": 7890,
      "epl": 7891,
      "f62": 7892,
      "gpp": 7893,
      "hes": 7894,
      "hqh": 7895,
      "iet": 7896,
      "irc": 7897,
      "jic": 7898,
      "jjx": 7899,
      "mca": 7900,
      "mip": 7901,
      "mwx": 7902,
      "oma": 7903,
      "preport": 7904,
      "qth": 7905,
      "qjy": 7906,
      "qjg": 7907,
      "rul": 7908,
      "swi": 7909,
      "uip": 7910,
      "ue1": 7911,
      "vli": 7912,
      "vml": 7913,
      "was": 7914,
      "wli": 7915,
      "wsn": 7916,
      "wab": 7917,
      "xtrade": 7918,
      "rant": 7919,
      "racu": 7920,
      "ralia": 7921,
      "bly": 7922,
      "2022": 7923,
      "1933": 7924,
      "16b": 7925,
      "st2": 7926,
      "strm": 7927,
      "1847": 7928,
      "inbo": 7929,
      "ican": 7930,
      "25b": 7931,
      "mall": 7932,
      "ties": 7933,
      "eab": 7934,
      "asu": 7935,
      "ceb": 7936,
      "ulq": 7937,
      "mail4": 7938,
      "bep": 7939,
      "us01": 7940,
      "cfdf": 7941,
      "6ae": 7942,
      "6f76": 7943,
      "e7c": 7944,
      "1a9": 7945,
      "dian": 7946,
      "2ab": 7947,
      "spr": 7948,
      "anci": 7949,
      "esy": 7950,
      "excel": 7951,
      "vif": 7952,
      "c2c": 7953,
      "c2l": 7954,
      "e26": 7955,
      "mtt": 7956,
      "cdn1": 7957,
      "e86": 7958,
      "moon": 7959,
      "ukk": 7960,
      "nov": 7961,
      "ssets": 7962,
      "tail": 7963,
      "rtp": 7964,
      "rtt": 7965,
      "bru": 7966,
      "fbs": 7967,
      "vkm": 7968,
      "qqy": 7969,
      "food": 7970,
      "zn5": 7971,
      "tyk": 7972,
      "jqac": 7973,
      "qlk": 7974,
      "uox": 7975,
      "pg8": 7976,
      "alisg": 7977,
      "struc": 7978,
      "datac": 7979,
      "publishers": 7980,
      "3duor0hi": 7981,
      "infinitum": 7982,
      "alumni": 7983,
      "4dypb2hq": 7984,
      "390": 7985,
      "434": 7986,
      "515": 7987,
      "763": 7988,
      "890": 7989,
      "880": 7990,
      "a65": 7991,
      "ae7": 7992,
      "dil": 7993,
      "d6d": 7994,
      "d5f": 7995,
      "emi": 7996,
      "f28": 7997,
      "fis": 7998,
      "fhy": 7999,
      "gat": 8000,
      "grn": 8001,
      "hmp": 8002,
      "hnl": 8003,
      "ieu": 8004,
      "ieo": 8005,
      "iu3": 8006,
      "jdy": 8007,
      "jep": 8008,
      "kqh": 8009,
      "mqk": 8010,
      "mjh": 8011,
      "oap": 8012,
      "qa3": 8013,
      "qck": 8014,
      "ril": 8015,
      "rmg": 8016,
      "sfo": 8017,
      "t9": 8018,
      "uvn": 8019,
      "vns": 8020,
      "v65": 8021,
      "won": 8022,
      "wso": 8023,
      "wig": 8024,
      "ycl": 8025,
      "zone": 8026,
      "mesh": 8027,
      "efk": 8028,
      "2011": 8029,
      "10b": 8030,
      "icg": 8031,
      "acija": 8032,
      "1227": 8033,
      "mater": 8034,
      "ecb": 8035,
      "6eec": 8036,
      "ork": 8037,
      "77b": 8038,
      "ond": 8039,
      "69c": 8040,
      "ce1": 8041,
      "47e": 8042,
      "35b": 8043,
      "mail01": 8044,
      "bes": 8045,
      "37c": 8046,
      "c7e": 8047,
      "6f6d": 8048,
      "opti": 8049,
      "84c": 8050,
      "91c": 8051,
      "ddy": 8052,
      "6c9": 8053,
      "d02": 8054,
      "gej": 8055,
      "good": 8056,
      "media6": 8057,
      "media12": 8058,
      "media61": 8059,
      "ss2": 8060,
      "dcs": 8061,
      "ucs": 8062,
      "xxh": 8063,
      "u2811": 8064,
      "nlz": 8065,
      "2e67": 8066,
      "qkg": 8067,
      "rn4": 8068,
      "e116": 8069,
      "wz4": 8070,
      "06u": 8071,
      "mz5": 8072,
      "sony": 8073,
      "sche": 8074,
      "matic": 8075,
      "goose": 8076,
      "oln0400922550": 8077,
      "onedriveclucprodbn200": 8078,
      "onedriveclubproddm200": 8079,
      "budva": 8080,
      "natural": 8081,
      "lzpf2xs4": 8082,
      "provedor": 8083,
      "faculty": 8084,
      "013": 8085,
      "068": 8086,
      "3ff": 8087,
      "3c5": 8088,
      "4cd": 8089,
      "4ff": 8090,
      "4bd": 8091,
      "466": 8092,
      "500": 8093,
      "768": 8094,
      "747": 8095,
      "7b3": 8096,
      "750": 8097,
      "7af": 8098,
      "732": 8099,
      "814": 8100,
      "863": 8101,
      "a1d": 8102,
      "a8f": 8103,
      "dmg": 8104,
      "ekn": 8105,
      "f23": 8106,
      "f63": 8107,
      "hcs": 8108,
      "hcp": 8109,
      "jsa": 8110,
      "jop": 8111,
      "msh": 8112,
      "qsa": 8113,
      "q24": 8114,
      "rtr": 8115,
      "sbs": 8116,
      "twoo": 8117,
      "w65": 8118,
      "wnu": 8119,
      "eft": 8120,
      "20c": 8121,
      "16c": 8122,
      "1428": 8123,
      "2463": 8124,
      "18e": 8125,
      "15b": 8126,
      "rows": 8127,
      "acdc": 8128,
      "1219": 8129,
      "many": 8130,
      "6ee": 8131,
      "ease": 8132,
      "ona": 8133,
      "67o": 8134,
      "4527": 8135,
      "27b": 8136,
      "nasta": 8137,
      "471": 8138,
      "wcg": 8139,
      "bdn": 8140,
      "bdz": 8141,
      "c5b": 8142,
      "b3b": 8143,
      "fp2": 8144,
      "b41": 8145,
      "e4e": 8146,
      "83c": 8147,
      "8315": 8148,
      "euser": 8149,
      "aae": 8150,
      "wsx": 8151,
      "559": 8152,
      "439": 8153,
      "visu": 8154,
      "4f2": 8155,
      "wln": 8156,
      "geok": 8157,
      "media41": 8158,
      "tok": 8159,
      "c81": 8160,
      "scl": 8161,
      "1e9": 8162,
      "clc": 8163,
      "mija": 8164,
      "miui": 8165,
      "rt3": 8166,
      "vot": 8167,
      "teo": 8168,
      "peh": 8169,
      "hni": 8170,
      "wrz": 8171,
      "cond": 8172,
      "whj": 8173,
      "java": 8174,
      "zkt": 8175,
      "epdg": 8176,
      "ksd": 8177,
      "tt1e7": 8178,
      "aliexpress": 8179,
      "am3pcor": 8180,
      "spruce": 8181,
      "01c": 8182,
      "3ec": 8183,
      "3bb": 8184,
      "3b3": 8185,
      "410": 8186,
      "587": 8187,
      "713": 8188,
      "793": 8189,
      "8l": 8190,
      "81f": 8191
    },
    "merges": [
      [
        "m",
        "e"
      ],
      [
        "r",
        "a"
      ],
      [
        "e",
        "f"
      ],
      [
        "s",
        "a"
      ],
      [
        "b",
        "l"
      ],
      [
        "f",
        "ef"
      ],
      [
        "ra",
        "me"
      ],
      [
        "sa",
        "fef"
      ],
      [
        "safef",
        "rame"
      ],
      [
        "2",
        "0"
      ],
      [
        "1",
        "0"
      ],
      [
        "e",
        "n"
      ],
      [
        "e",
        "r"
      ],
      [
        "1",
        "9"
      ],
      [
        "1",
        "6"
      ],
      [
        "c",
        "o"
      ],
      [
        "1",
        "7"
      ],
      [
        "r",
        "e"
      ],
      [
        "1",
        "4"
      ],
      [
        "2",
        "4"
      ],
      [
        "s",
        "t"
      ],
      [
        "1",
        "8"
      ],
      [
        "1",
        "3"
      ],
      [
        "1",
        "5"
      ],
      [
        "i",
        "n"
      ],
      [
        "n",
        "s"
      ],
      [
        "2",
        "3"
      ],
      [
        "r",
        "o"
      ],
      [
        "z",
        "en"
      ],
      [
        "i",
        "c"
      ],
      [
        "2",
        "5"
      ],
      [
        "e",
        "d"
      ],
      [
        "a",
        "c"
      ],
      [
        "a",
        "d"
      ],
      [
        "1",
        "2"
      ],
      [
        "m",
        "a"
      ],
      [
        "co",
        "m"
      ],
      [
        "4",
        "0"
      ],
      [
        "8",
        "5"
      ],
      [
        "i",
        "l"
      ],
      [
        "e",
        "c"
      ],
      [
        "2",
        "2"
      ],
      [
        "b",
        "a"
      ],
      [
        "6",
        "e"
      ],
      [
        "t",
        "i"
      ],
      [
        "5",
        "4"
      ],
      [
        "e",
        "a"
      ],
      [
        "o",
        "r"
      ],
      [
        "c",
        "d"
      ],
      [
        "7",
        "7"
      ],
      [
        "9",
        "3"
      ],
      [
        "o",
        "n"
      ],
      [
        "p",
        "ro"
      ],
      [
        "c",
        "a"
      ],
      [
        "i",
        "t"
      ],
      [
        "s",
        "bl"
      ],
      [
        "0",
        "0"
      ],
      [
        "6",
        "4"
      ],
      [
        "d",
        "a"
      ],
      [
        "a",
        "s"
      ],
      [
        "b",
        "b"
      ],
      [
        "t",
        "r"
      ],
      [
        "1",
        "f"
      ],
      [
        "6",
        "9"
      ],
      [
        "2",
        "8"
      ],
      [
        "6",
        "7"
      ],
      [
        "3",
        "3"
      ],
      [
        "4",
        "5"
      ],
      [
        "6",
        "5"
      ],
      [
        "d",
        "e"
      ],
      [
        "2",
        "7"
      ],
      [
        "b",
        "f"
      ],
      [
        "l",
        "i"
      ],
      [
        "c",
        "e"
      ],
      [
        "n",
        "a"
      ],
      [
        "6",
        "8"
      ],
      [
        "9",
        "8"
      ],
      [
        "c",
        "4"
      ],
      [
        "6",
        "3"
      ],
      [
        "f",
        "f"
      ],
      [
        "6",
        "0"
      ],
      [
        "d",
        "ns"
      ],
      [
        "4",
        "7"
      ],
      [
        "u",
        "l"
      ],
      [
        "9",
        "0"
      ],
      [
        "9",
        "5"
      ],
      [
        "3",
        "5"
      ],
      [
        "e",
        "t"
      ],
      [
        "20",
        "9"
      ],
      [
        "s",
        "er"
      ],
      [
        "w",
        "c"
      ],
      [
        "ma",
        "il"
      ],
      [
        "f",
        "a"
      ],
      [
        "b",
        "e"
      ],
      [
        "l",
        "o"
      ],
      [
        "1",
        "1"
      ],
      [
        "9",
        "4"
      ],
      [
        "8",
        "0"
      ],
      [
        "3",
        "7"
      ],
      [
        "b",
        "5"
      ],
      [
        "b",
        "d"
      ],
      [
        "9",
        "7"
      ],
      [
        "6",
        "d"
      ],
      [
        "8",
        "7"
      ],
      [
        "b",
        "7"
      ],
      [
        "u",
        "s"
      ],
      [
        "c",
        "f"
      ],
      [
        "c",
        "5"
      ],
      [
        "s",
        "n"
      ],
      [
        "d",
        "o"
      ],
      [
        "v",
        "er"
      ],
      [
        "9",
        "2"
      ],
      [
        "4",
        "4"
      ],
      [
        "b",
        "0"
      ],
      [
        "b",
        "3"
      ],
      [
        "6",
        "a"
      ],
      [
        "c",
        "7"
      ],
      [
        "c",
        "3"
      ],
      [
        "6",
        "f"
      ],
      [
        "a",
        "t"
      ],
      [
        "f",
        "p"
      ],
      [
        "1",
        "d"
      ],
      [
        "e",
        "7"
      ],
      [
        "a",
        "p"
      ],
      [
        "b",
        "4"
      ],
      [
        "1",
        "a"
      ],
      [
        "c",
        "0"
      ],
      [
        "8",
        "8"
      ],
      [
        "d",
        "i"
      ],
      [
        "2",
        "f"
      ],
      [
        "2",
        "d"
      ],
      [
        "x",
        "p"
      ],
      [
        "s",
        "i"
      ],
      [
        "2",
        "a"
      ],
      [
        "9",
        "d"
      ],
      [
        "o",
        "p"
      ],
      [
        "3",
        "0"
      ],
      [
        "pro",
        "d"
      ],
      [
        "9",
        "a"
      ],
      [
        "ser",
        "ver"
      ],
      [
        "e",
        "e"
      ],
      [
        "s",
        "p"
      ],
      [
        "u",
        "re"
      ],
      [
        "5",
        "0"
      ],
      [
        "v",
        "4"
      ],
      [
        "3",
        "4"
      ],
      [
        "a",
        "n"
      ],
      [
        "dns",
        "bl"
      ],
      [
        "9",
        "f"
      ],
      [
        "8",
        "4"
      ],
      [
        "u",
        "t"
      ],
      [
        "e",
        "l"
      ],
      [
        "6",
        "6"
      ],
      [
        "e",
        "s"
      ],
      [
        "5",
        "7"
      ],
      [
        "p",
        "4"
      ],
      [
        "e",
        "4"
      ],
      [
        "8",
        "3"
      ],
      [
        "e",
        "0"
      ],
      [
        "a",
        "m"
      ],
      [
        "9",
        "1"
      ],
      [
        "s",
        "o"
      ],
      [
        "e",
        "u"
      ],
      [
        "c",
        "bl"
      ],
      [
        "e",
        "x"
      ],
      [
        "10",
        "7"
      ],
      [
        "r",
        "s"
      ],
      [
        "c",
        "c"
      ],
      [
        "me",
        "as"
      ],
      [
        "meas",
        "ure"
      ],
      [
        "m",
        "ul"
      ],
      [
        "a",
        "a"
      ],
      [
        "8",
        "d"
      ],
      [
        "mul",
        "ti"
      ],
      [
        "5",
        "3"
      ],
      [
        "6",
        "2"
      ],
      [
        "8",
        "f"
      ],
      [
        "e",
        "b"
      ],
      [
        "tr",
        "ic"
      ],
      [
        "me",
        "tric"
      ],
      [
        "w",
        "s"
      ],
      [
        "e",
        "3"
      ],
      [
        "5",
        "5"
      ],
      [
        "8",
        "a"
      ],
      [
        "p",
        "u"
      ],
      [
        "d",
        "f"
      ],
      [
        "xp",
        "3"
      ],
      [
        "v",
        "6e"
      ],
      [
        "v6e",
        "xp3"
      ],
      [
        "b",
        "c"
      ],
      [
        "9",
        "9"
      ],
      [
        "4",
        "3"
      ],
      [
        "a",
        "l"
      ],
      [
        "u",
        "n"
      ],
      [
        "v",
        "i"
      ],
      [
        "d",
        "bl"
      ],
      [
        "e",
        "5"
      ],
      [
        "a",
        "r"
      ],
      [
        "c",
        "h"
      ],
      [
        "4",
        "f"
      ],
      [
        "8",
        "2"
      ],
      [
        "or",
        "t"
      ],
      [
        "5",
        "2"
      ],
      [
        "d",
        "d"
      ],
      [
        "a",
        "7"
      ],
      [
        "w",
        "l"
      ],
      [
        "en",
        "t"
      ],
      [
        "a",
        "f"
      ],
      [
        "3",
        "2"
      ],
      [
        "li",
        "st"
      ],
      [
        "i",
        "2"
      ],
      [
        "8",
        "9"
      ],
      [
        "d",
        "s"
      ],
      [
        "b",
        "o"
      ],
      [
        "s",
        "co"
      ],
      [
        "7",
        "4"
      ],
      [
        "24",
        "0"
      ],
      [
        "t",
        "er"
      ],
      [
        "7",
        "5"
      ],
      [
        "6",
        "c"
      ],
      [
        "7",
        "0"
      ],
      [
        "b",
        "2"
      ],
      [
        "in",
        "f"
      ],
      [
        "4",
        "2"
      ],
      [
        "7",
        "3"
      ],
      [
        "s",
        "h"
      ],
      [
        "d",
        "3"
      ],
      [
        "a",
        "5"
      ],
      [
        "r",
        "i"
      ],
      [
        "d",
        "0"
      ],
      [
        "19",
        "8"
      ],
      [
        "g",
        "e"
      ],
      [
        "na",
        "l"
      ],
      [
        "c",
        "2"
      ],
      [
        "a",
        "0"
      ],
      [
        "u",
        "st"
      ],
      [
        "m",
        "s"
      ],
      [
        "me",
        "di"
      ],
      [
        "w",
        "w"
      ],
      [
        "u",
        "p"
      ],
      [
        "b",
        "i"
      ],
      [
        "p",
        "ort"
      ],
      [
        "n",
        "et"
      ],
      [
        "n",
        "t"
      ],
      [
        "do",
        "b"
      ],
      [
        "h",
        "o"
      ],
      [
        "3",
        "f"
      ],
      [
        "c",
        "b"
      ],
      [
        "6",
        "b"
      ],
      [
        "4",
        "8"
      ],
      [
        "si",
        "bl"
      ],
      [
        "m",
        "p"
      ],
      [
        "d",
        "7"
      ],
      [
        "5",
        "b"
      ],
      [
        "re",
        "d"
      ],
      [
        "ac",
        "c"
      ],
      [
        "pu",
        "bl"
      ],
      [
        "14",
        "7"
      ],
      [
        "g",
        "o"
      ],
      [
        "i",
        "d"
      ],
      [
        "a",
        "3"
      ],
      [
        "4",
        "6"
      ],
      [
        "4",
        "d"
      ],
      [
        "1",
        "c"
      ],
      [
        "e",
        "2"
      ],
      [
        "m",
        "t"
      ],
      [
        "7",
        "2"
      ],
      [
        "9",
        "6"
      ],
      [
        "publ",
        "ic"
      ],
      [
        "cd",
        "n"
      ],
      [
        "ter",
        "nal"
      ],
      [
        "18",
        "5"
      ],
      [
        "e",
        "8"
      ],
      [
        "i",
        "p"
      ],
      [
        "4",
        "9"
      ],
      [
        "ad",
        "b"
      ],
      [
        "w",
        "e"
      ],
      [
        "i",
        "f"
      ],
      [
        "p",
        "sbl"
      ],
      [
        "ex",
        "ternal"
      ],
      [
        "5",
        "f"
      ],
      [
        "red",
        "it"
      ],
      [
        "m",
        "o"
      ],
      [
        "inf",
        "ra"
      ],
      [
        "b",
        "8"
      ],
      [
        "tr",
        "ust"
      ],
      [
        "17",
        "4"
      ],
      [
        "ti",
        "on"
      ],
      [
        "acc",
        "redit"
      ],
      [
        "4",
        "a"
      ],
      [
        "trust",
        "ed"
      ],
      [
        "medi",
        "a"
      ],
      [
        "re",
        "port"
      ],
      [
        "20",
        "5"
      ],
      [
        "19",
        "2"
      ],
      [
        "sco",
        "re"
      ],
      [
        "16",
        "2"
      ],
      [
        "l",
        "a"
      ],
      [
        "f",
        "0"
      ],
      [
        "i",
        "adb"
      ],
      [
        "l",
        "y"
      ],
      [
        "r",
        "h"
      ],
      [
        "b",
        "g"
      ],
      [
        "e",
        "6"
      ],
      [
        "1",
        "b"
      ],
      [
        "10",
        "8"
      ],
      [
        "d",
        "2"
      ],
      [
        "l",
        "e"
      ],
      [
        "p",
        "o"
      ],
      [
        "5",
        "8"
      ],
      [
        "3",
        "8"
      ],
      [
        "2",
        "6"
      ],
      [
        "u",
        "b"
      ],
      [
        "t",
        "o"
      ],
      [
        "2",
        "1"
      ],
      [
        "ba",
        "r"
      ],
      [
        "5",
        "1"
      ],
      [
        "3",
        "d"
      ],
      [
        "t",
        "h"
      ],
      [
        "c",
        "8"
      ],
      [
        "c",
        "lo"
      ],
      [
        "u",
        "k"
      ],
      [
        "u",
        "d"
      ],
      [
        "n",
        "o"
      ],
      [
        "7",
        "f"
      ],
      [
        "s",
        "c"
      ],
      [
        "5",
        "9"
      ],
      [
        "in",
        "it"
      ],
      [
        "1",
        "e"
      ],
      [
        "a",
        "g"
      ],
      [
        "8",
        "6"
      ],
      [
        "n",
        "u"
      ],
      [
        "in",
        "g"
      ],
      [
        "10",
        "4"
      ],
      [
        "2",
        "9"
      ],
      [
        "b",
        "9"
      ],
      [
        "f",
        "d"
      ],
      [
        "t",
        "ec"
      ],
      [
        "m",
        "x"
      ],
      [
        "s",
        "s"
      ],
      [
        "v",
        "e"
      ],
      [
        "or",
        "g"
      ],
      [
        "y",
        "g"
      ],
      [
        "u",
        "r"
      ],
      [
        "7",
        "8"
      ],
      [
        "f",
        "e"
      ],
      [
        "c",
        "l"
      ],
      [
        "sp",
        "am"
      ],
      [
        "y",
        "bar"
      ],
      [
        "a",
        "b"
      ],
      [
        "op",
        "m"
      ],
      [
        "7",
        "d"
      ],
      [
        "5",
        "6"
      ],
      [
        "p",
        "s"
      ],
      [
        "e",
        "9"
      ],
      [
        "f",
        "3"
      ],
      [
        "a",
        "4"
      ],
      [
        "m",
        "i"
      ],
      [
        "b",
        "6"
      ],
      [
        "f",
        "4"
      ],
      [
        "3",
        "1"
      ],
      [
        "r",
        "c"
      ],
      [
        "f",
        "c"
      ],
      [
        "t",
        "a"
      ],
      [
        "25",
        "1"
      ],
      [
        "o",
        "k"
      ],
      [
        "3",
        "6"
      ],
      [
        "2",
        "16"
      ],
      [
        "f",
        "il"
      ],
      [
        "7",
        "6"
      ],
      [
        "d",
        "c"
      ],
      [
        "d",
        "4"
      ],
      [
        "v",
        "a"
      ],
      [
        "19",
        "3"
      ],
      [
        "p",
        "p"
      ],
      [
        "20",
        "0"
      ],
      [
        "m",
        "y"
      ],
      [
        "16",
        "7"
      ],
      [
        "r",
        "t"
      ],
      [
        "k",
        "o"
      ],
      [
        "7",
        "9"
      ],
      [
        "8",
        "1"
      ],
      [
        "17",
        "3"
      ],
      [
        "19",
        "1"
      ],
      [
        "m",
        "f"
      ],
      [
        "at",
        "l"
      ],
      [
        "3",
        "9"
      ],
      [
        "m",
        "g"
      ],
      [
        "u",
        "g"
      ],
      [
        "ap",
        "i"
      ],
      [
        "c",
        "9"
      ],
      [
        "4",
        "1"
      ],
      [
        "20",
        "8"
      ],
      [
        "pro",
        "tec"
      ],
      [
        "17",
        "2"
      ],
      [
        "d",
        "5"
      ],
      [
        "24",
        "5"
      ],
      [
        "protec",
        "tion"
      ],
      [
        "we",
        "st"
      ],
      [
        "b",
        "r"
      ],
      [
        "19",
        "5"
      ],
      [
        "v",
        "o"
      ],
      [
        "f",
        "7"
      ],
      [
        "0",
        "5"
      ],
      [
        "1",
        "14"
      ],
      [
        "s",
        "k"
      ],
      [
        "1",
        "17"
      ],
      [
        "f",
        "5"
      ],
      [
        "n",
        "e"
      ],
      [
        "d",
        "b"
      ],
      [
        "0",
        "3"
      ],
      [
        "t",
        "e"
      ],
      [
        "2",
        "17"
      ],
      [
        "p",
        "h"
      ],
      [
        "2",
        "12"
      ],
      [
        "6",
        "1"
      ],
      [
        "l",
        "s"
      ],
      [
        "14",
        "8"
      ],
      [
        "f",
        "t"
      ],
      [
        "d",
        "y"
      ],
      [
        "0",
        "2"
      ],
      [
        "10",
        "3"
      ],
      [
        "u",
        "c"
      ],
      [
        "o",
        "ut"
      ],
      [
        "9",
        "e"
      ],
      [
        "x",
        "x"
      ],
      [
        "0",
        "4"
      ],
      [
        "22",
        "2"
      ],
      [
        "23",
        "7"
      ],
      [
        "p",
        "l"
      ],
      [
        "16",
        "0"
      ],
      [
        "x",
        "y"
      ],
      [
        "i",
        "g"
      ],
      [
        "a",
        "2"
      ],
      [
        "so",
        "s"
      ],
      [
        "atl",
        "as"
      ],
      [
        "el",
        "b"
      ],
      [
        "o",
        "l"
      ],
      [
        "m",
        "c4"
      ],
      [
        "o",
        "g"
      ],
      [
        "6e",
        "1f"
      ],
      [
        "i",
        "s"
      ],
      [
        "ef",
        "20"
      ],
      [
        "c",
        "6"
      ],
      [
        "19",
        "4"
      ],
      [
        "16",
        "6"
      ],
      [
        "10",
        "5"
      ],
      [
        "u",
        "28"
      ],
      [
        "c",
        "s"
      ],
      [
        "5b",
        "ef20"
      ],
      [
        "mc4",
        "6e1f"
      ],
      [
        "mc46e1f",
        "5bef20"
      ],
      [
        "19",
        "9"
      ],
      [
        "8",
        "e"
      ],
      [
        "16",
        "24"
      ],
      [
        "0",
        "1"
      ],
      [
        "a",
        "e"
      ],
      [
        "rh",
        "sbl"
      ],
      [
        "k",
        "n"
      ],
      [
        "u",
        "m"
      ],
      [
        "f",
        "b"
      ],
      [
        "w",
        "q"
      ],
      [
        "w",
        "j"
      ],
      [
        "7",
        "1"
      ],
      [
        "15",
        "5"
      ],
      [
        "i",
        "x"
      ],
      [
        "c",
        "1"
      ],
      [
        "e",
        "m"
      ],
      [
        "c",
        "k"
      ],
      [
        "0",
        "7"
      ],
      [
        "12",
        "8"
      ],
      [
        "p",
        "r"
      ],
      [
        "h",
        "r"
      ],
      [
        "st",
        "o"
      ],
      [
        "a",
        "8"
      ],
      [
        "2",
        "c"
      ],
      [
        "g",
        "a"
      ],
      [
        "2",
        "b"
      ],
      [
        "16",
        "4"
      ],
      [
        "j",
        "o"
      ],
      [
        "2",
        "10"
      ],
      [
        "v",
        "ic"
      ],
      [
        "p",
        "e"
      ],
      [
        "vi",
        "e"
      ],
      [
        "9",
        "b"
      ],
      [
        "17",
        "8"
      ],
      [
        "20",
        "1"
      ],
      [
        "w",
        "n"
      ],
      [
        "i",
        "k"
      ],
      [
        "10",
        "0"
      ],
      [
        "v",
        "g"
      ],
      [
        "l",
        "l"
      ],
      [
        "18",
        "0"
      ],
      [
        "13",
        "0"
      ],
      [
        "i",
        "j"
      ],
      [
        "d",
        "8"
      ],
      [
        "5",
        "a"
      ],
      [
        "1",
        "24"
      ],
      [
        "i",
        "r"
      ],
      [
        "h",
        "p"
      ],
      [
        "z",
        "z"
      ],
      [
        "13",
        "4"
      ],
      [
        "7",
        "c"
      ],
      [
        "2",
        "20"
      ],
      [
        "9",
        "c"
      ],
      [
        "a",
        "k"
      ],
      [
        "f",
        "8"
      ],
      [
        "h",
        "t"
      ],
      [
        "v",
        "k"
      ],
      [
        "st",
        "at"
      ],
      [
        "4",
        "c"
      ],
      [
        "5",
        "d"
      ],
      [
        "ea",
        "st"
      ],
      [
        "q",
        "u"
      ],
      [
        "ro",
        "l"
      ],
      [
        "n",
        "l"
      ],
      [
        "f",
        "k"
      ],
      [
        "z",
        "o"
      ],
      [
        "15",
        "0"
      ],
      [
        "r",
        "y"
      ],
      [
        "i",
        "o"
      ],
      [
        "3",
        "c"
      ],
      [
        "w",
        "m"
      ],
      [
        "s",
        "e"
      ],
      [
        "1",
        "23"
      ],
      [
        "r",
        "3"
      ],
      [
        "w",
        "a"
      ],
      [
        "ra",
        "m"
      ],
      [
        "b",
        "n"
      ],
      [
        "r",
        "k"
      ],
      [
        "i",
        "1"
      ],
      [
        "7",
        "a"
      ],
      [
        "p",
        "re"
      ],
      [
        "0",
        "f"
      ],
      [
        "q",
        "q"
      ],
      [
        "16",
        "3"
      ],
      [
        "0",
        "8"
      ],
      [
        "h",
        "n"
      ],
      [
        "x",
        "bl"
      ],
      [
        "t",
        "s"
      ],
      [
        "f",
        "na"
      ],
      [
        "m",
        "ic"
      ],
      [
        "h",
        "y"
      ],
      [
        "2",
        "e"
      ],
      [
        "c",
        "m"
      ],
      [
        "1",
        "13"
      ],
      [
        "3",
        "a"
      ],
      [
        "14",
        "5"
      ],
      [
        "nu",
        "id"
      ],
      [
        "v",
        "p"
      ],
      [
        "12",
        "9"
      ],
      [
        "24",
        "7"
      ],
      [
        "g",
        "5"
      ],
      [
        "u",
        "x"
      ],
      [
        "f",
        "o"
      ],
      [
        "18",
        "9"
      ],
      [
        "14",
        "2"
      ],
      [
        "g",
        "n"
      ],
      [
        "q",
        "k"
      ],
      [
        "18",
        "3"
      ],
      [
        "4",
        "e"
      ],
      [
        "10",
        "9"
      ],
      [
        "2",
        "13"
      ],
      [
        "w",
        "eb"
      ],
      [
        "v",
        "s"
      ],
      [
        "i",
        "m"
      ],
      [
        "18",
        "7"
      ],
      [
        "h",
        "a"
      ],
      [
        "i",
        "a"
      ],
      [
        "4",
        "b"
      ],
      [
        "c",
        "li"
      ],
      [
        "14",
        "3"
      ],
      [
        "r",
        "2"
      ],
      [
        "u",
        "y"
      ],
      [
        "v",
        "y"
      ],
      [
        "c",
        "n"
      ],
      [
        "z",
        "n"
      ],
      [
        "20",
        "4"
      ],
      [
        "2",
        "23"
      ],
      [
        "w",
        "p"
      ],
      [
        "q",
        "x"
      ],
      [
        "b",
        "s"
      ],
      [
        "r",
        "4"
      ],
      [
        "g",
        "y"
      ],
      [
        "on",
        "ly"
      ],
      [
        "u",
        "j"
      ],
      [
        "14",
        "6"
      ],
      [
        "r",
        "n"
      ],
      [
        "c",
        "p"
      ],
      [
        "t",
        "y"
      ],
      [
        "v",
        "n"
      ],
      [
        "11",
        "1"
      ],
      [
        "25",
        "4"
      ],
      [
        "5",
        "e"
      ],
      [
        "d",
        "1"
      ],
      [
        "f",
        "2"
      ],
      [
        "8",
        "c"
      ],
      [
        "14",
        "0"
      ],
      [
        "v",
        "x"
      ],
      [
        "3",
        "e"
      ],
      [
        "22",
        "1"
      ],
      [
        "d",
        "m"
      ],
      [
        "i",
        "z"
      ],
      [
        "b",
        "1"
      ],
      [
        "14",
        "4"
      ],
      [
        "b",
        "y"
      ],
      [
        "o",
        "t"
      ],
      [
        "h",
        "x"
      ],
      [
        "c",
        "t"
      ],
      [
        "s",
        "mt"
      ],
      [
        "17",
        "7"
      ],
      [
        "r",
        "5"
      ],
      [
        "j",
        "y"
      ],
      [
        "a",
        "6"
      ],
      [
        "cli",
        "ent"
      ],
      [
        "d",
        "6"
      ],
      [
        "1",
        "20"
      ],
      [
        "j",
        "p"
      ],
      [
        "q",
        "y"
      ],
      [
        "w",
        "f"
      ],
      [
        "24",
        "3"
      ],
      [
        "25",
        "3"
      ],
      [
        "a",
        "z"
      ],
      [
        "2",
        "18"
      ],
      [
        "25",
        "0"
      ],
      [
        "d",
        "k"
      ],
      [
        "w",
        "x"
      ],
      [
        "13",
        "7"
      ],
      [
        "w",
        "y"
      ],
      [
        "g",
        "r"
      ],
      [
        "h",
        "k"
      ],
      [
        "14",
        "9"
      ],
      [
        "15",
        "4"
      ],
      [
        "13",
        "9"
      ],
      [
        "r",
        "bl"
      ],
      [
        "v",
        "q"
      ],
      [
        "w",
        "o"
      ],
      [
        "m",
        "l"
      ],
      [
        "e",
        "1"
      ],
      [
        "m",
        "n"
      ],
      [
        "u",
        "z"
      ],
      [
        "rc",
        "ub"
      ],
      [
        "g",
        "s"
      ],
      [
        "18",
        "8"
      ],
      [
        "f",
        "s"
      ],
      [
        "w",
        "r"
      ],
      [
        "a",
        "9"
      ],
      [
        "2",
        "14"
      ],
      [
        "17",
        "1"
      ],
      [
        "m",
        "k"
      ],
      [
        "10",
        "6"
      ],
      [
        "15",
        "7"
      ],
      [
        "ap",
        "p"
      ],
      [
        "w",
        "z"
      ],
      [
        "w",
        "k"
      ],
      [
        "g",
        "l"
      ],
      [
        "a",
        "ws"
      ],
      [
        "19",
        "7"
      ],
      [
        "i",
        "us"
      ],
      [
        "j",
        "q"
      ],
      [
        "stat",
        "ic"
      ],
      [
        "13",
        "5"
      ],
      [
        "c",
        "x"
      ],
      [
        "co",
        "n"
      ],
      [
        "17",
        "6"
      ],
      [
        "d",
        "l"
      ],
      [
        "v",
        "t"
      ],
      [
        "b",
        "z"
      ],
      [
        "b",
        "k"
      ],
      [
        "ww",
        "w"
      ],
      [
        "15",
        "8"
      ],
      [
        "13",
        "3"
      ],
      [
        "d",
        "n"
      ],
      [
        "0",
        "6"
      ],
      [
        "1",
        "16"
      ],
      [
        "13",
        "8"
      ],
      [
        "14",
        "1"
      ],
      [
        "12",
        "2"
      ],
      [
        "smt",
        "p"
      ],
      [
        "f",
        "6"
      ],
      [
        "u",
        "q"
      ],
      [
        "j",
        "l"
      ],
      [
        "1",
        "19"
      ],
      [
        "v",
        "z"
      ],
      [
        "an",
        "ti"
      ],
      [
        "w",
        "h"
      ],
      [
        "7",
        "e"
      ],
      [
        "8",
        "b"
      ],
      [
        "v",
        "h"
      ],
      [
        "m",
        "r"
      ],
      [
        "p",
        "a"
      ],
      [
        "17",
        "0"
      ],
      [
        "c",
        "i"
      ],
      [
        "u",
        "f"
      ],
      [
        "j",
        "x"
      ],
      [
        "g",
        "t"
      ],
      [
        "g",
        "i"
      ],
      [
        "17",
        "5"
      ],
      [
        "12",
        "7"
      ],
      [
        "19",
        "0"
      ],
      [
        "bi",
        "o"
      ],
      [
        "20",
        "2"
      ],
      [
        "20",
        "3"
      ],
      [
        "24",
        "9"
      ],
      [
        "a",
        "1"
      ],
      [
        "d",
        "9"
      ],
      [
        "20",
        "6"
      ],
      [
        "t",
        "ra"
      ],
      [
        "s",
        "y"
      ],
      [
        "bo",
        "un"
      ],
      [
        "16",
        "9"
      ],
      [
        "e",
        "y"
      ],
      [
        "j",
        "z"
      ],
      [
        "16",
        "1"
      ],
      [
        "23",
        "3"
      ],
      [
        "23",
        "2"
      ],
      [
        "spam",
        "rbl"
      ],
      [
        "s",
        "3"
      ],
      [
        "n",
        "k"
      ],
      [
        "q",
        "t"
      ],
      [
        "ra",
        "l"
      ],
      [
        "in",
        "e"
      ],
      [
        "g",
        "z"
      ],
      [
        "v",
        "l"
      ],
      [
        "in",
        "st"
      ],
      [
        "c",
        "y"
      ],
      [
        "q",
        "o"
      ],
      [
        "j",
        "k"
      ],
      [
        "0",
        "9"
      ],
      [
        "g",
        "k"
      ],
      [
        "h",
        "l"
      ],
      [
        "q",
        "s"
      ],
      [
        "j",
        "t"
      ],
      [
        "19",
        "6"
      ],
      [
        "13",
        "6"
      ],
      [
        "1",
        "10"
      ],
      [
        "eu",
        "ro"
      ],
      [
        "ho",
        "st"
      ],
      [
        "18",
        "4"
      ],
      [
        "q",
        "l"
      ],
      [
        "15",
        "6"
      ],
      [
        "20",
        "7"
      ],
      [
        "u",
        "o"
      ],
      [
        "15",
        "3"
      ],
      [
        "18",
        "2"
      ],
      [
        "15",
        "9"
      ],
      [
        "nt",
        "ent"
      ],
      [
        "g",
        "x"
      ],
      [
        "7",
        "b"
      ],
      [
        "2",
        "19"
      ],
      [
        "s",
        "1"
      ],
      [
        "5",
        "c"
      ],
      [
        "fil",
        "e"
      ],
      [
        "b",
        "x"
      ],
      [
        "24",
        "4"
      ],
      [
        "0",
        "a"
      ],
      [
        "q",
        "z"
      ],
      [
        "ser",
        "vic"
      ],
      [
        "p",
        "t"
      ],
      [
        "16",
        "8"
      ],
      [
        "f",
        "i"
      ],
      [
        "r",
        "u"
      ],
      [
        "w",
        "t"
      ],
      [
        "18",
        "1"
      ],
      [
        "17",
        "9"
      ],
      [
        "10",
        "1"
      ],
      [
        "re",
        "ad"
      ],
      [
        "0",
        "d"
      ],
      [
        "q",
        "n"
      ],
      [
        "clo",
        "u"
      ],
      [
        "j",
        "a"
      ],
      [
        "b",
        "t"
      ],
      [
        "m",
        "z"
      ],
      [
        "24",
        "2"
      ],
      [
        "1",
        "12"
      ],
      [
        "r",
        "p"
      ],
      [
        "j",
        "h"
      ],
      [
        "b",
        "p"
      ],
      [
        "g",
        "p"
      ],
      [
        "j",
        "n"
      ],
      [
        "f",
        "l"
      ],
      [
        "1",
        "25"
      ],
      [
        "in",
        "t"
      ],
      [
        "0",
        "c"
      ],
      [
        "u",
        "h"
      ],
      [
        "i",
        "y"
      ],
      [
        "f",
        "y"
      ],
      [
        "r",
        "1"
      ],
      [
        "f",
        "9"
      ],
      [
        "d",
        "t"
      ],
      [
        "r",
        "v"
      ],
      [
        "23",
        "6"
      ],
      [
        "1",
        "15"
      ],
      [
        "23",
        "5"
      ],
      [
        "ns",
        "1"
      ],
      [
        "w",
        "g"
      ],
      [
        "3",
        "b"
      ],
      [
        "v",
        "m"
      ],
      [
        "da",
        "pp"
      ],
      [
        "s",
        "l"
      ],
      [
        "23",
        "0"
      ],
      [
        "2",
        "15"
      ],
      [
        "z",
        "y"
      ],
      [
        "pro",
        "file"
      ],
      [
        "boun",
        "d"
      ],
      [
        "13",
        "1"
      ],
      [
        "g",
        "u"
      ],
      [
        "ius",
        "b"
      ],
      [
        "read",
        "only"
      ],
      [
        "r",
        "d"
      ],
      [
        "10",
        "2"
      ],
      [
        "b",
        "in"
      ],
      [
        "16",
        "5"
      ],
      [
        "w",
        "i"
      ],
      [
        "1",
        "18"
      ],
      [
        "25",
        "5"
      ],
      [
        "r",
        "l"
      ],
      [
        "s",
        "m"
      ],
      [
        "z",
        "k"
      ],
      [
        "out",
        "bound"
      ],
      [
        "e",
        "p"
      ],
      [
        "s",
        "u"
      ],
      [
        "h",
        "i"
      ],
      [
        "ent",
        "ral"
      ],
      [
        "clou",
        "dapp"
      ],
      [
        "q",
        "p"
      ],
      [
        "e",
        "k"
      ],
      [
        "23",
        "4"
      ],
      [
        "clo",
        "ud"
      ],
      [
        "lo",
        "ok"
      ],
      [
        "13",
        "2"
      ],
      [
        "q",
        "h"
      ],
      [
        "18",
        "6"
      ],
      [
        "n",
        "y"
      ],
      [
        "k",
        "a"
      ],
      [
        "b",
        "m"
      ],
      [
        "z",
        "x"
      ],
      [
        "g",
        "h"
      ],
      [
        "f",
        "x"
      ],
      [
        "v",
        "2"
      ],
      [
        "pre",
        "vie"
      ],
      [
        "ns",
        "2"
      ],
      [
        "23",
        "8"
      ],
      [
        "w",
        "2"
      ],
      [
        "j",
        "j"
      ],
      [
        "b",
        "h"
      ],
      [
        "sh",
        "op"
      ],
      [
        "r",
        "x"
      ],
      [
        "d",
        "x"
      ],
      [
        "15",
        "2"
      ],
      [
        "aws",
        "dns"
      ],
      [
        "i",
        "mp"
      ],
      [
        "k",
        "y"
      ],
      [
        "previe",
        "ws"
      ],
      [
        "d",
        "ms"
      ],
      [
        "n",
        "4"
      ],
      [
        "7",
        "l"
      ],
      [
        "k",
        "s"
      ],
      [
        "r",
        "m"
      ],
      [
        "z",
        "t"
      ],
      [
        "z",
        "p"
      ],
      [
        "f",
        "or"
      ],
      [
        "24",
        "8"
      ],
      [
        "r",
        "6"
      ],
      [
        "22",
        "8"
      ],
      [
        "4",
        "g5"
      ],
      [
        "i",
        "h"
      ],
      [
        "ns",
        "v4"
      ],
      [
        "v",
        "6"
      ],
      [
        "ba",
        "l"
      ],
      [
        "0",
        "b"
      ],
      [
        "client",
        "nsv4"
      ],
      [
        "ut",
        "h"
      ],
      [
        "com",
        "bin"
      ],
      [
        "v",
        "j"
      ],
      [
        "combin",
        "ed"
      ],
      [
        "2",
        "24"
      ],
      [
        "z",
        "l"
      ],
      [
        "ag",
        "ram"
      ],
      [
        "22",
        "7"
      ],
      [
        "inst",
        "agram"
      ],
      [
        "d",
        "p"
      ],
      [
        "23",
        "1"
[...]
